{
  "version": "1.0",
  "truncation": {
    "direction": "Right",
    "max_length": 512,
    "strategy": "LongestFirst",
    "stride": 0
  },
  "padding": {
    "strategy": "BatchLongest",
    "direction": "Right",
    "pad_to_multiple_of": null,
    "pad_id": 0,
    "pad_type_id": 0,
    "pad_token": "[PAD]"
  },
  "added_tokens": [
    {
      "id": 0,
      "content": "[PAD]",
      "single_word": false,
      "lstrip": false,
      "rstrip": false,
      "normalized": false,
      "special": true
    },
    {
      "id": 1,
      "content": "[UNK]",
      "single_word": false,
      "lstrip": false,
      "rstrip": false,
      "normalized": false,
      "special": true
    },
    {
      "id": 2,
      "content": "[CLS]",
      "single_word": false,
      "lstrip": false,
      "rstrip": false,
      "normalized": false,
      "special": true
    },
    {
      "id": 3,
      "content": "[SEP]",
      "single_word": false,
      "lstrip": false,
      "rstrip": false,
      "normalized": false,
      "special": true
    },
    {
      "id": 4,
      "content": "[MASK]",
      "single_word": false,
      "lstrip": false,
      "rstrip": false,
      "normalized": false,
      "special": true
    }
  ],
  "normalizer": {
    "type": "BertNormalizer",
    "clean_text": true,
    "handle_chinese_chars": true,
    "strip_accents": null,
    "lowercase": false
  },
  "pre_tokenizer": {
    "type": "BertPreTokenizer"
  },
  "post_processor": {
    "type": "TemplateProcessing",
    "single": [
      {
        "SpecialToken": {
          "id": "[CLS]",
          "type_id": 0
        }
      },
      {
        "Sequence": {
          "id": "A",
          "type_id": 0
        }
      },
      {
        "SpecialToken": {
          "id": "[SEP]",
          "type_id": 0
        }
      }
    ],
    "pair": [
      {
        "SpecialToken": {
          "id": "[CLS]",
          "type_id": 0
        }
      },
      {
        "Sequence": {
          "id": "A",
          "type_id": 0
        }
      },
      {
        "SpecialToken": {
          "id": "[SEP]",
          "type_id": 0
        }
      },
      {
        "Sequence": {
          "id": "B",
          "type_id": 1
        }
      },
      {
        "SpecialToken": {
          "id": "[SEP]",
          "type_id": 1
        }
      }
    ],
    "special_tokens": {
      "[CLS]": {
        "id": "[CLS]",
        "ids": [
          2
        ],
        "tokens": [
          "[CLS]"
        ]
      },
      "[SEP]": {
        "id": "[SEP]",
        "ids": [
          3
        ],
        "tokens": [
          "[SEP]"
        ]
      }
    }
  },
  "decoder": {
    "type": "WordPiece",
    "prefix": "##",
    "cleanup": true
  },
  "model": {
    "type": "WordPiece",
    "unk_token": "[UNK]",
    "continuing_subword_prefix": "##",
    "max_input_chars_per_word": 100,
    "vocab": {
      "[PAD]": 0,
      "[UNK]": 1,
      "[CLS]": 2,
      "[SEP]": 3,
      "[MASK]": 4,
      "이": 5,
      ".": 6,
      "다": 7,
      "는": 8,
      "에": 9,
      "을": 10,
      "하": 11,
      "의": 12,
      "가": 13,
      "은": 14,
      "고": 15,
      ",": 16,
      "한": 17,
      "지": 18,
      "를": 19,
      "기": 20,
      "으": 21,
      "1": 22,
      "있": 23,
      "대": 24,
      "도": 25,
      "으로": 26,
      "인": 27,
      "일": 28,
      "2": 29,
      "들": 30,
      "사": 31,
      "수": 32,
      "시": 33,
      "(": 34,
      ")": 35,
      "로": 36,
      "했": 37,
      "아": 38,
      "전": 39,
      "해": 40,
      "에서": 41,
      "그": 42,
      "보": 43,
      "과": 44,
      "어": 45,
      "'": 46,
      "자": 47,
      "것": 48,
      "적": 49,
      "주": 50,
      "만": 51,
      "정": 52,
      "부": 53,
      "나": 54,
      "라": 55,
      "상": 56,
      "면": 57,
      "중": 58,
      "제": 59,
      "등": 60,
      "게": 61,
      "경": 62,
      "3": 63,
      "개": 64,
      "위": 65,
      "공": 66,
      "되": 67,
      "할": 68,
      "원": 69,
      "\"": 70,
      "조": 71,
      "와": 72,
      "국": 73,
      "성": 74,
      "년": 75,
      "여": 76,
      "된": 77,
      "거": 78,
      "유": 79,
      "%": 80,
      "관": 81,
      "비": 82,
      "서": 83,
      "20": 84,
      "내": 85,
      "소": 86,
      "모": 87,
      "었": 88,
      "5": 89,
      "연": 90,
      "한다": 91,
      "신": 92,
      "마": 93,
      "4": 94,
      "오": 95,
      "미": 96,
      "월": 97,
      "분": 98,
      "세": 99,
      "선": 100,
      "말": 101,
      "##니다": 102,
      "안": 103,
      "구": 104,
      "없": 105,
      "통": 106,
      "우": 107,
      "?": 108,
      "최": 109,
      "스": 110,
      "생": 111,
      "동": 112,
      "며": 113,
      "실": 114,
      "문": 115,
      "예": 116,
      "발": 117,
      "매": 118,
      "회": 119,
      "현": 120,
      "때": 121,
      "않": 122,
      "진": 123,
      "당": 124,
      "방": 125,
      "장": 126,
      "화": 127,
      "6": 128,
      "##00": 129,
      "영": 130,
      "차": 131,
      "계": 132,
      "바": 133,
      "무": 134,
      "금": 135,
      "까": 136,
      "더": 137,
      "명": 138,
      "억": 139,
      "강": 140,
      "재": 141,
      "증": 142,
      "까지": 143,
      "다고": 144,
      "7": 145,
      "확": 146,
      "입": 147,
      "따": 148,
      "·": 149,
      "건": 150,
      "투": 151,
      "단": 152,
      "8": 153,
      "반": 154,
      "달": 155,
      "~": 156,
      "교": 157,
      "던": 158,
      "감": 159,
      "지난": 160,
      "받": 161,
      "-": 162,
      "추": 163,
      "같": 164,
      "결": 165,
      "불": 166,
      "9": 167,
      "올": 168,
      "대한": 169,
      "노": 170,
      "저": 171,
      "지만": 172,
      "면서": 173,
      "배": 174,
      "된다": 175,
      "특": 176,
      "업": 177,
      "시장": 178,
      "라고": 179,
      "에게": 180,
      "또": 181,
      "다는": 182,
      "포": 183,
      "10": 184,
      "겠": 185,
      "았": 186,
      "습": 187,
      "네": 188,
      "한국": 189,
      "처": 190,
      "201": 191,
      "설": 192,
      "후": 193,
      "평": 194,
      "물": 195,
      "많": 196,
      "함": 197,
      "코": 198,
      "기업": 199,
      "및": 200,
      "판": 201,
      "권": 202,
      "점": 203,
      "부터": 204,
      "아니": 205,
      "산": 206,
      "출": 207,
      "사람": 208,
      "습니다": 209,
      "간": 210,
      "이름": 211,
      "됐": 212,
      "남": 213,
      "김": 214,
      "알": 215,
      "요": 216,
      "사업": 217,
      "니": 218,
      "위해": 219,
      "투자": 220,
      "역": 221,
      "는데": 222,
      "보다": 223,
      "될": 224,
      "외": 225,
      "!": 226,
      "파": 227,
      "19": 228,
      "프": 229,
      "운": 230,
      "데": 231,
      "학": 232,
      "우리": 233,
      "집": 234,
      "못": 235,
      "밝": 236,
      "종": 237,
      "행": 238,
      "합": 239,
      "임": 240,
      "높": 241,
      "본": 242,
      "때문": 243,
      "치": 244,
      "작": 245,
      "라는": 246,
      "호": 247,
      "청": 248,
      "법": 249,
      "민": 250,
      "총": 251,
      "두": 252,
      "참": 253,
      "중국": 254,
      "직": 255,
      "미국": 256,
      "가능": 257,
      "규": 258,
      "리": 259,
      "통해": 260,
      "활": 261,
      "형": 262,
      "협": 263,
      "정부": 264,
      "경우": 265,
      "초": 266,
      "야": 267,
      "피": 268,
      "S": 269,
      "새": 270,
      "변": 271,
      "박": 272,
      "서울": 273,
      "지역": 274,
      "양": 275,
      "필": 276,
      "약": 277,
      "경제": 278,
      "열": 279,
      "환": 280,
      "체": 281,
      "앞": 282,
      "살": 283,
      "검": 284,
      "음": 285,
      "심": 286,
      "였": 287,
      "삼": 288,
      "타": 289,
      "국민": 290,
      "번": 291,
      "밝혔": 292,
      "좋": 293,
      "금융": 294,
      "천": 295,
      "12": 296,
      "C": 297,
      "0": 298,
      "각": 299,
      "11": 300,
      "카": 301,
      "목": 302,
      "순": 303,
      "이상": 304,
      "200": 305,
      "냐": 306,
      "드": 307,
      "지원": 308,
      "이번": 309,
      "따라": 310,
      "증가": 311,
      "채": 312,
      "줄": 313,
      "시간": 314,
      "잘": 315,
      "대해": 316,
      "해야": 317,
      "문제": 318,
      "생각": 319,
      "##000": 320,
      "맞": 321,
      "용": 322,
      "크": 323,
      ":": 324,
      "대표": 325,
      "상승": 326,
      "관계": 327,
      "그러": 328,
      "트": 329,
      "일본": 330,
      "관련": 331,
      "국내": 332,
      "이나": 333,
      "이후": 334,
      "ᄏ": 335,
      "북": 336,
      "손": 337,
      "씨": 338,
      "광": 339,
      "경기": 340,
      "속": 341,
      "/": 342,
      "30": 343,
      "나라": 344,
      "편": 345,
      "함께": 346,
      "사용": 347,
      "개발": 348,
      "대비": 349,
      "기술": 350,
      "A": 351,
      "준": 352,
      "위한": 353,
      "전망": 354,
      "하나": 355,
      "디": 356,
      "누": 357,
      "언": 358,
      "버": 359,
      "성장": 360,
      "##비스": 361,
      "연구": 362,
      "현재": 363,
      "급": 364,
      "15": 365,
      "세계": 366,
      "걸": 367,
      "식": 368,
      "도록": 369,
      "기록": 370,
      "사회": 371,
      "필요": 372,
      "온": 373,
      "표": 374,
      "별": 375,
      "돌": 376,
      "L": 377,
      "근": 378,
      "취": 379,
      "진행": 380,
      "올해": 381,
      "계획": 382,
      "위원": 383,
      "완": 384,
      "가격": 385,
      "대통": 386,
      "기준": 387,
      "거래": 388,
      "가장": 389,
      "서비스": 390,
      "글": 391,
      "애": 392,
      "군": 393,
      "달러": 394,
      "대통령": 395,
      "산업": 396,
      "분기": 397,
      "메": 398,
      "백": 399,
      "상황": 400,
      "최근": 401,
      "P": 402,
      "ᄏᄏ": 403,
      "프로": 404,
      "지난해": 405,
      "늘": 406,
      "복": 407,
      "아이": 408,
      "예상": 409,
      "창": 410,
      "그리": 411,
      "너": 412,
      "브": 413,
      "돼": 414,
      "충": 415,
      "항": 416,
      "시작": 417,
      "넘": 418,
      "토": 419,
      "뉴": 420,
      "다른": 421,
      "독": 422,
      "수준": 423,
      "매출": 424,
      "제품": 425,
      "플": 426,
      "질": 427,
      "절": 428,
      "업체": 429,
      "=": 430,
      "규모": 431,
      "##레이": 432,
      "삼성": 433,
      "I": 434,
      "효": 435,
      "으면": 436,
      "담": 437,
      "큰": 438,
      "K": 439,
      "교육": 440,
      "정보": 441,
      "폭": 442,
      "은행": 443,
      "뒤": 444,
      "해서": 445,
      "정책": 446,
      "이런": 447,
      "지금": 448,
      "려": 449,
      "입니다": 450,
      "M": 451,
      "만들": 452,
      "이용": 453,
      "농": 454,
      "판매": 455,
      "쓰": 456,
      "예정": 457,
      "률": 458,
      "엔": 459,
      "국가": 460,
      "정도": 461,
      "확대": 462,
      "기대": 463,
      "회사": 464,
      "친": 465,
      "대상": 466,
      "조사": 467,
      "전문": 468,
      "자신": 469,
      "으며": 470,
      "향": 471,
      "모두": 472,
      "패": 473,
      "T": 474,
      "베": 475,
      "곳": 476,
      "승": 477,
      "이익": 478,
      "나타": 479,
      "관리": 480,
      "테": 481,
      "하락": 482,
      "커": 483,
      "이날": 484,
      "18": 485,
      "태": 486,
      "13": 487,
      "느": 488,
      "영업": 489,
      "가지": 490,
      "G": 491,
      "결과": 492,
      "E": 493,
      "길": 494,
      "B": 495,
      "평가": 496,
      "제공": 497,
      "##스트": 498,
      "사이": 499,
      "16": 500,
      "현대": 501,
      "사실": 502,
      "는다": 503,
      "왜": 504,
      "금리": 505,
      "따르": 506,
      "14": 507,
      "센": 508,
      "책": 509,
      "기자": 510,
      "처럼": 511,
      "날": 512,
      "논": 513,
      "다양": 514,
      "기관": 515,
      "생산": 516,
      "측": 517,
      "관계자": 518,
      "병": 519,
      "다시": 520,
      "이어": 521,
      "합니다": 522,
      "눈": 523,
      "실적": 524,
      "운영": 525,
      "얼": 526,
      "찾": 527,
      "개선": 528,
      "고객": 529,
      "##라고": 530,
      "25": 531,
      "D": 532,
      "발표": 533,
      "먹": 534,
      "그런": 535,
      "접": 536,
      "철": 537,
      "소비": 538,
      "민주": 539,
      "정치": 540,
      "설명": 541,
      "들어": 542,
      "잡": 543,
      "레": 544,
      "##지만": 545,
      "지속": 546,
      "수익": 547,
      "좀": 548,
      "라며": 549,
      "빠": 550,
      "그리고": 551,
      "키": 552,
      "##렇게": 553,
      "허": 554,
      "상품": 555,
      "한다고": 556,
      "주택": 557,
      "보이": 558,
      "17": 559,
      "어서": 560,
      "돈": 561,
      "##랜드": 562,
      "죽": 563,
      "갖": 564,
      "모든": 565,
      "축": 566,
      "100": 567,
      "거나": 568,
      "듯": 569,
      "그러나": 570,
      "볼": 571,
      "의원": 572,
      "하지만": 573,
      "막": 574,
      "뿐": 575,
      "문화": 576,
      "활동": 577,
      "추가": 578,
      "다음": 579,
      "이라고": 580,
      "또한": 581,
      "##시아": 582,
      "낮": 583,
      "싶": 584,
      "기간": 585,
      "발생": 586,
      "벌": 587,
      "보험": 588,
      "##로나": 589,
      "대학": 590,
      "경쟁": 591,
      "팀": 592,
      "증권": 593,
      "홍": 594,
      "북한": 595,
      "F": 596,
      "최고": 597,
      "최대": 598,
      "50": 599,
      "코로나": 600,
      "그래": 601,
      "21": 602,
      "추진": 603,
      "자동": 604,
      "결정": 605,
      "분석": 606,
      "해외": 607,
      "영향": 608,
      "환경": 609,
      "글로": 610,
      "갈": 611,
      "22": 612,
      "도시": 613,
      "##er": 614,
      "감소": 615,
      "주가": 616,
      "님": 617,
      "지수": 618,
      "24": 619,
      "율": 620,
      "회장": 621,
      "글로벌": 622,
      "포함": 623,
      "는지": 624,
      "유지": 625,
      "##운데": 626,
      "이미": 627,
      "든": 628,
      "공급": 629,
      "새로": 630,
      "많이": 631,
      "개인": 632,
      "끝": 633,
      "강화": 634,
      "참여": 635,
      "다가": 636,
      "몰": 637,
      "머": 638,
      "국제": 639,
      "효과": 640,
      "과정": 641,
      "난": 642,
      "가운데": 643,
      "그룹": 644,
      "##대로": 645,
      "빨": 646,
      "##인다": 647,
      "확인": 648,
      "내용": 649,
      "동안": 650,
      "경영": 651,
      "기존": 652,
      "따른": 653,
      "##in": 654,
      "뭐": 655,
      "외국": 656,
      "놓": 657,
      "시키": 658,
      "수출": 659,
      "아닌": 660,
      "이유": 661,
      "밖": 662,
      "주식": 663,
      "시스": 664,
      "전체": 665,
      "이제": 666,
      "존": 667,
      "블": 668,
      "클": 669,
      "떨": 670,
      "건설": 671,
      "모습": 672,
      "한다는": 673,
      "란": 674,
      "페": 675,
      "센터": 676,
      "악": 677,
      "개월": 678,
      "없이": 679,
      "주요": 680,
      "중심": 681,
      "판단": 682,
      "23": 683,
      "인데": 684,
      "바이": 685,
      "수요": 686,
      "범": 687,
      "러": 688,
      "중요": 689,
      "다면": 690,
      "O": 691,
      "계약": 692,
      "##on": 693,
      "첫": 694,
      "대출": 695,
      "위원회": 696,
      "골": 697,
      "후보": 698,
      "다며": 699,
      "탄": 700,
      "적용": 701,
      "구조": 702,
      "만큼": 703,
      "국회": 704,
      "조정": 705,
      "N": 706,
      "##마트": 707,
      "극": 708,
      "활용": 709,
      "##으며": 710,
      "게임": 711,
      "m": 712,
      "시스템": 713,
      "자산": 714,
      "역시": 715,
      "피해": 716,
      "한편": 717,
      "나오": 718,
      "일부": 719,
      "##부터": 720,
      "+": 721,
      "자금": 722,
      "행사": 723,
      "인터": 724,
      "발전": 725,
      "구성": 726,
      "인간": 727,
      "시설": 728,
      "28": 729,
      "방송": 730,
      "좌": 731,
      "어려": 732,
      "각각": 733,
      "가치": 734,
      "먼": 735,
      "27": 736,
      "29": 737,
      "핵": 738,
      "긴": 739,
      "공개": 740,
      "마련": 741,
      "생활": 742,
      "케": 743,
      "학교": 744,
      "26": 745,
      "장관": 746,
      "40": 747,
      "관심": 748,
      "안전": 749,
      "새로운": 750,
      "펀": 751,
      "안정": 752,
      "터": 753,
      "처음": 754,
      "자리": 755,
      "평균": 756,
      "황": 757,
      "일반": 758,
      "계속": 759,
      "왔": 760,
      "전략": 761,
      "폐": 762,
      "부문": 763,
      "분야": 764,
      "스타": 765,
      "202": 766,
      "같이": 767,
      "캐": 768,
      "자동차": 769,
      "휴": 770,
      "째": 771,
      "우려": 772,
      "직접": 773,
      "통신": 774,
      "여러": 775,
      "봐": 776,
      "해당": 777,
      "조선": 778,
      "상태": 779,
      "R": 780,
      "##반기": 781,
      "못하": 782,
      "준비": 783,
      "당시": 784,
      "전년": 785,
      "층": 786,
      "상대": 787,
      "아직": 788,
      "매수": 789,
      "떨어": 790,
      "회의": 791,
      "오후": 792,
      "내년": 793,
      "##어나": 794,
      "브랜드": 795,
      "문재": 796,
      "홈": 797,
      "자기": 798,
      "미래": 799,
      "선거": 800,
      "##인트": 801,
      "팔": 802,
      "##전자": 803,
      "인상": 804,
      "잠": 805,
      "쇼": 806,
      "전국": 807,
      "##주의": 808,
      "방법": 809,
      "또는": 810,
      "석": 811,
      "밀": 812,
      "능": 813,
      "##너지": 814,
      "아파": 815,
      "출시": 816,
      "여성": 817,
      "혁": 818,
      "응": 819,
      "변화": 820,
      "엄": 821,
      "침": 822,
      "코스": 823,
      "어떤": 824,
      "떠": 825,
      "여기": 826,
      "31": 827,
      "업계": 828,
      "검찰": 829,
      "주장": 830,
      "망": 831,
      "경찰": 832,
      "알려": 833,
      "영화": 834,
      "&": 835,
      "너무": 836,
      "##이터": 837,
      "마음": 838,
      "민주당": 839,
      "실시": 840,
      "프로그": 841,
      "컨": 842,
      "부동": 843,
      "제도": 844,
      "부분": 845,
      "전자": 846,
      "의미": 847,
      "보여": 848,
      "보인다": 849,
      "부담": 850,
      "자유": 851,
      "##라인": 852,
      "윤": 853,
      "인지": 854,
      "어떻": 855,
      "지방": 856,
      "목표": 857,
      "아파트": 858,
      "어야": 859,
      "H": 860,
      "회복": 861,
      "죠": 862,
      "사건": 863,
      "공동": 864,
      "방식": 865,
      "돌아": 866,
      "이야": 867,
      "바로": 868,
      "실제": 869,
      "오전": 870,
      "포인트": 871,
      "물론": 872,
      "희": 873,
      "##an": 874,
      "##스크": 875,
      "프로그램": 876,
      "펀드": 877,
      "뉴스": 878,
      "부동산": 879,
      "콘": 880,
      "육": 881,
      "티": 882,
      "지적": 883,
      "부산": 884,
      "품": 885,
      "s": 886,
      "강조": 887,
      "책임": 888,
      "##리아": 889,
      "비용": 890,
      "답": 891,
      "송": 892,
      "소비자": 893,
      "가구": 894,
      "입장": 895,
      "의견": 896,
      "기사": 897,
      "학생": 898,
      "k": 899,
      "아무": 900,
      "언론": 901,
      "확보": 902,
      "LG": 903,
      "더욱": 904,
      "해도": 905,
      "중소": 906,
      "성공": 907,
      "이사": 908,
      "##이트": 909,
      "풀": 910,
      "업무": 911,
      "노력": 912,
      "시민": 913,
      "장기": 914,
      "교수": 915,
      "협력": 916,
      "스마트": 917,
      "유럽": 918,
      "중앙": 919,
      "가족": 920,
      "이러": 921,
      "요구": 922,
      "보유": 923,
      "외국인": 924,
      "정신": 925,
      "##라도": 926,
      "탈": 927,
      "자체": 928,
      "모르": 929,
      "##니까": 930,
      "롯": 931,
      "정상": 932,
      "지지": 933,
      "대부": 934,
      "기능": 935,
      "##은행": 936,
      "혼": 937,
      "카드": 938,
      "라면": 939,
      "진짜": 940,
      "루": 941,
      "이야기": 942,
      "귀": 943,
      "적극": 944,
      "이렇게": 945,
      "단체": 946,
      "운동": 947,
      "감독": 948,
      "수사": 949,
      "신규": 950,
      "롯데": 951,
      "비중": 952,
      "단계": 953,
      "정권": 954,
      "##al": 955,
      "시대": 956,
      "##or": 957,
      "전환": 958,
      "t": 959,
      "압": 960,
      "특별": 961,
      "건강": 962,
      "##민국": 963,
      "전기": 964,
      "노동": 965,
      "SK": 966,
      "얻": 967,
      "놈": 968,
      "울": 969,
      "사랑": 970,
      "대한민국": 971,
      "다만": 972,
      "퍼": 973,
      "위기": 974,
      "고려": 975,
      "규제": 976,
      "##이스": 977,
      "몇": 978,
      "소리": 979,
      "선정": 980,
      "대부분": 981,
      "그냥": 982,
      "왕": 983,
      "직원": 984,
      "선택": 985,
      "능력": 986,
      "##ar": 987,
      "어떻게": 988,
      "공사": 989,
      "문재인": 990,
      "라도": 991,
      "p": 992,
      "에너지": 993,
      "어요": 994,
      "얼마": 995,
      "역사": 996,
      "봉": 997,
      "60": 998,
      "결국": 999,
      "대해서": 1000,
      "비롯": 1001,
      "향후": 1002,
      "##러스": 1003,
      "깨": 1004,
      "종목": 1005,
      "반영": 1006,
      "증시": 1007,
      "보호": 1008,
      "액": 1009,
      "제조": 1010,
      "현지": 1011,
      "쉽": 1012,
      "신청": 1013,
      "선수": 1014,
      "방문": 1015,
      "인가": 1016,
      "##at": 1017,
      "사고": 1018,
      "풍": 1019,
      "위치": 1020,
      "c": 1021,
      "정말": 1022,
      "##en": 1023,
      "세요": 1024,
      "둘": 1025,
      "이해": 1026,
      "여자": 1027,
      "단지": 1028,
      "모델": 1029,
      "싸": 1030,
      "삼성전자": 1031,
      "나가": 1032,
      "사진": 1033,
      "시행": 1034,
      "상기": 1035,
      "가입": 1036,
      "현장": 1037,
      "분양": 1038,
      "##기업": 1039,
      "그것": 1040,
      "설치": 1041,
      "기반": 1042,
      "전문가": 1043,
      "견": 1044,
      "한테": 1045,
      "즉": 1046,
      "대구": 1047,
      "치료": 1048,
      "연구원": 1049,
      "어느": 1050,
      "공장": 1051,
      "대응": 1052,
      "격": 1053,
      "검사": 1054,
      "반면": 1055,
      "대로": 1056,
      "몸": 1057,
      "나온": 1058,
      "놀": 1059,
      "도입": 1060,
      "그렇": 1061,
      "처리": 1062,
      "인사": 1063,
      "씩": 1064,
      "역할": 1065,
      "기본": 1066,
      "이전": 1067,
      "의료": 1068,
      "업종": 1069,
      "해결": 1070,
      "오늘": 1071,
      "짓": 1072,
      "비교": 1073,
      "욕": 1074,
      "데이터": 1075,
      "인정": 1076,
      "워": 1077,
      "방안": 1078,
      "W": 1079,
      "흐": 1080,
      "얘": 1081,
      "구매": 1082,
      "병원": 1083,
      "조국": 1084,
      "##거리": 1085,
      "열린": 1086,
      "위험": 1087,
      "대회": 1088,
      "대책": 1089,
      "집중": 1090,
      "관광": 1091,
      "조치": 1092,
      "즐": 1093,
      "##으나": 1094,
      "##다고": 1095,
      "투자자": 1096,
      "끌": 1097,
      "상당": 1098,
      "]": 1099,
      "여행": 1100,
      "쪽": 1101,
      "기회": 1102,
      "사장": 1103,
      "혁신": 1104,
      "위해서": 1105,
      "솔": 1106,
      "##다는": 1107,
      "암": 1108,
      "믿": 1109,
      "재정": 1110,
      "비해": 1111,
      "##라이": 1112,
      "[": 1113,
      "199": 1114,
      "하루": 1115,
      "매출액": 1116,
      "착": 1117,
      "경험": 1118,
      "차지": 1119,
      "지급": 1120,
      "잔": 1121,
      "인터넷": 1122,
      "인수": 1123,
      "주민": 1124,
      "통합": 1125,
      "앞서": 1126,
      "제한": 1127,
      "인해": 1128,
      "공간": 1129,
      "행정": 1130,
      "로서": 1131,
      "종합": 1132,
      "뛰": 1133,
      "교통": 1134,
      "거리": 1135,
      "선보": 1136,
      "고용": 1137,
      "제작": 1138,
      "맡": 1139,
      "매우": 1140,
      "시켜": 1141,
      "ᄏᄏᄏ": 1142,
      "나타났": 1143,
      "위원장": 1144,
      "지난달": 1145,
      "2018": 1146,
      "인천": 1147,
      "소득": 1148,
      "먼저": 1149,
      "공정": 1150,
      "신용": 1151,
      "십": 1152,
      "당신": 1153,
      "공격": 1154,
      "조직": 1155,
      "그래서": 1156,
      "뜻": 1157,
      "네요": 1158,
      "000": 1159,
      "개최": 1160,
      "연결": 1161,
      "수입": 1162,
      "웃": 1163,
      "로부터": 1164,
      "구축": 1165,
      "아야": 1166,
      "##소리": 1167,
      "세상": 1168,
      "##자리": 1169,
      "아서": 1170,
      "이하": 1171,
      "감사": 1172,
      "70": 1173,
      "제시": 1174,
      "차량": 1175,
      "조성": 1176,
      "대형": 1177,
      "##이지": 1178,
      "반대": 1179,
      "우선": 1180,
      "과거": 1181,
      "본격": 1182,
      "온라인": 1183,
      "해라": 1184,
      "디자": 1185,
      ";": 1186,
      "혜": 1187,
      "a": 1188,
      "려고": 1189,
      "올라": 1190,
      "그렇게": 1191,
      "자료": 1192,
      "이뤄": 1193,
      "제외": 1194,
      "마다": 1195,
      "공공": 1196,
      "##어난": 1197,
      "둔": 1198,
      "끼": 1199,
      "꾸": 1200,
      "선물": 1201,
      "항공": 1202,
      "핵심": 1203,
      "존재": 1204,
      "어린": 1205,
      "비율": 1206,
      "어디": 1207,
      "b": 1208,
      "오른": 1209,
      "상장": 1210,
      "으나": 1211,
      "#": 1212,
      "세금": 1213,
      "채권": 1214,
      "500": 1215,
      "보였": 1216,
      "현실": 1217,
      "움": 1218,
      "무슨": 1219,
      "께": 1220,
      "니까": 1221,
      "맛": 1222,
      "V": 1223,
      "세대": 1224,
      "과학": 1225,
      "누구": 1226,
      "보수": 1227,
      "##시스": 1228,
      "TV": 1229,
      "##50": 1230,
      "광주": 1231,
      "작업": 1232,
      "헤": 1233,
      "시즌": 1234,
      "도움": 1235,
      "보도": 1236,
      "U": 1237,
      "참석": 1238,
      "얘기": 1239,
      "지분": 1240,
      "최초": 1241,
      "죄": 1242,
      "만나": 1243,
      "인기": 1244,
      "본부": 1245,
      "유통": 1246,
      "법인": 1247,
      "차이": 1248,
      "소재": 1249,
      "자연": 1250,
      "제대로": 1251,
      "진출": 1252,
      "댓": 1253,
      "지나": 1254,
      "빌": 1255,
      "80": 1256,
      "방향": 1257,
      "중소기업": 1258,
      "징": 1259,
      "식품": 1260,
      "라이": 1261,
      "개정": 1262,
      "자본": 1263,
      "동시": 1264,
      "반도": 1265,
      "프리": 1266,
      "작품": 1267,
      "아시아": 1268,
      "##디어": 1269,
      "색": 1270,
      "광고": 1271,
      "2017": 1272,
      "예산": 1273,
      "성과": 1274,
      "흥": 1275,
      "전했": 1276,
      "혐": 1277,
      "개혁": 1278,
      "이동": 1279,
      "##es": 1280,
      "이루": 1281,
      "부족": 1282,
      "제주": 1283,
      "쿠": 1284,
      "무엇": 1285,
      "기획": 1286,
      "무역": 1287,
      "잘못": 1288,
      "인도": 1289,
      "2000": 1290,
      "반도체": 1291,
      "공시": 1292,
      "확실": 1293,
      "쇼핑": 1294,
      "보고": 1295,
      "여전": 1296,
      "못한": 1297,
      "##진다": 1298,
      "##동안": 1299,
      "영상": 1300,
      "낙": 1301,
      "여부": 1302,
      "2015": 1303,
      "논의": 1304,
      "보내": 1305,
      "복지": 1306,
      "완화": 1307,
      "남자": 1308,
      "겨": 1309,
      "연속": 1310,
      "지구": 1311,
      "##ic": 1312,
      "납": 1313,
      "2016": 1314,
      "환자": 1315,
      "내려": 1316,
      "쳐": 1317,
      "통한": 1318,
      "디자인": 1319,
      "##it": 1320,
      "금액": 1321,
      "봤": 1322,
      "드러": 1323,
      "시기": 1324,
      "삶": 1325,
      "퇴": 1326,
      "동기": 1327,
      "영국": 1328,
      "통화": 1329,
      "합의": 1330,
      "모바": 1331,
      "일정": 1332,
      "목적": 1333,
      "Q": 1334,
      "연합": 1335,
      "모바일": 1336,
      "이것": 1337,
      "대신": 1338,
      "생명": 1339,
      "을까": 1340,
      "할인": 1341,
      "경쟁력": 1342,
      "택": 1343,
      "갑": 1344,
      "벤": 1345,
      "하이": 1346,
      "추정": 1347,
      "붙": 1348,
      "캠": 1349,
      "려는": 1350,
      "맥": 1351,
      "확산": 1352,
      "슬": 1353,
      "^": 1354,
      "행위": 1355,
      "하반기": 1356,
      "사례": 1357,
      "속도": 1358,
      "전쟁": 1359,
      "주목": 1360,
      "##머니": 1361,
      "##므로": 1362,
      "설립": 1363,
      "더불": 1364,
      "검토": 1365,
      "에선": 1366,
      "달리": 1367,
      "그런데": 1368,
      "호텔": 1369,
      "푸": 1370,
      "협의": 1371,
      "했으며": 1372,
      "완전": 1373,
      "전화": 1374,
      "협회": 1375,
      "의사": 1376,
      "슈": 1377,
      "우수": 1378,
      "부진": 1379,
      "수도": 1380,
      "친구": 1381,
      "l": 1382,
      "##이션": 1383,
      "으니": 1384,
      "공식": 1385,
      "거의": 1386,
      "체결": 1387,
      "환율": 1388,
      "감염": 1389,
      "댓글": 1390,
      "인식": 1391,
      "배우": 1392,
      "찍": 1393,
      "회원": 1394,
      "사태": 1395,
      "더라도": 1396,
      "어렵": 1397,
      "조금": 1398,
      "요인": 1399,
      "Y": 1400,
      "사항": 1401,
      "못했": 1402,
      "다니": 1403,
      "제기": 1404,
      "##러운": 1405,
      "촉": 1406,
      "##벤트": 1407,
      "밖에": 1408,
      "주변": 1409,
      "임대": 1410,
      "이벤트": 1411,
      "등록": 1412,
      "변경": 1413,
      "청와": 1414,
      "부정": 1415,
      "활성": 1416,
      "재앙": 1417,
      "얼마나": 1418,
      "청와대": 1419,
      "지정": 1420,
      "##텐츠": 1421,
      "##무원": 1422,
      "덧": 1423,
      "지도": 1424,
      "디지": 1425,
      "만든": 1426,
      "높이": 1427,
      "팬": 1428,
      "가까": 1429,
      "2014": 1430,
      "분위": 1431,
      "화학": 1432,
      "담당": 1433,
      "독일": 1434,
      "따라서": 1435,
      "사무": 1436,
      "당국": 1437,
      "헌": 1438,
      "35": 1439,
      "녹": 1440,
      "듣": 1441,
      "마지": 1442,
      "펼": 1443,
      "나왔": 1444,
      "발행": 1445,
      "홀": 1446,
      "방침": 1447,
      "숨": 1448,
      "론": 1449,
      "긍": 1450,
      "등장": 1451,
      "마이": 1452,
      "운용": 1453,
      "관한": 1454,
      "움직": 1455,
      "컴": 1456,
      "행동": 1457,
      "내부": 1458,
      "참가": 1459,
      "서로": 1460,
      "자원": 1461,
      "전달": 1462,
      "작년": 1463,
      "신고": 1464,
      "표현": 1465,
      "형태": 1466,
      "넘어": 1467,
      "최종": 1468,
      "민간": 1469,
      "창업": 1470,
      "일자리": 1471,
      "찾아": 1472,
      "전시": 1473,
      "등급": 1474,
      "부모": 1475,
      "본인": 1476,
      "유가": 1477,
      "충분": 1478,
      "물량": 1479,
      "혐의": 1480,
      "플랫": 1481,
      "음식": 1482,
      "숙": 1483,
      "혜택": 1484,
      "마지막": 1485,
      "가정": 1486,
      "규정": 1487,
      "덧붙": 1488,
      "인하": 1489,
      "##리스": 1490,
      "긍정": 1491,
      "찬": 1492,
      "졌": 1493,
      "체계": 1494,
      "아주": 1495,
      "분위기": 1496,
      "협상": 1497,
      "지표": 1498,
      "장애": 1499,
      "물가": 1500,
      "디지털": 1501,
      "##프트": 1502,
      "최소": 1503,
      "##ing": 1504,
      "빈": 1505,
      "1000": 1506,
      "폼": 1507,
      "그만": 1508,
      "32": 1509,
      "언제": 1510,
      "금지": 1511,
      "으로써": 1512,
      "조건": 1513,
      "됨": 1514,
      "각종": 1515,
      "정의": 1516,
      "틀": 1517,
      "비판": 1518,
      "90": 1519,
      "넣": 1520,
      "2013": 1521,
      "머리": 1522,
      "얼굴": 1523,
      "소개": 1524,
      "주도": 1525,
      "장비": 1526,
      "의해": 1527,
      "러시아": 1528,
      "시험": 1529,
      "##플레이": 1530,
      "음악": 1531,
      "흐름": 1532,
      "단기": 1533,
      "갔": 1534,
      "됩": 1535,
      "전용": 1536,
      "혹": 1537,
      "상반기": 1538,
      "곡": 1539,
      "추천": 1540,
      "마케": 1541,
      "오려": 1542,
      "들어가": 1543,
      "마감": 1544,
      "KB": 1545,
      "##ion": 1546,
      "멀": 1547,
      "빼": 1548,
      "강세": 1549,
      "최저": 1550,
      "2012": 1551,
      "연금": 1552,
      "청년": 1553,
      "마케팅": 1554,
      "프랑": 1555,
      "인한": 1556,
      "달성": 1557,
      "d": 1558,
      "변동": 1559,
      "##le": 1560,
      "심리": 1561,
      "36": 1562,
      "출신": 1563,
      "##re": 1564,
      "5000": 1565,
      "훈": 1566,
      "뉴시스": 1567,
      "희망": 1568,
      "라인": 1569,
      "짜": 1570,
      "사전": 1571,
      "덕": 1572,
      "겪": 1573,
      "##없이": 1574,
      "##럼프": 1575,
      "딸": 1576,
      "뭔": 1577,
      "으로서": 1578,
      "##is": 1579,
      "멘": 1580,
      "전날": 1581,
      "효율": 1582,
      "뽑": 1583,
      "는가": 1584,
      "올랐": 1585,
      "계열": 1586,
      "사이트": 1587,
      "꿈": 1588,
      "됩니다": 1589,
      "프로젝": 1590,
      "매장": 1591,
      "덧붙였": 1592,
      "보장": 1593,
      "##어들": 1594,
      "꺼": 1595,
      "##린다": 1596,
      "바람": 1597,
      "동사": 1598,
      "근로": 1599,
      "마을": 1600,
      "집단": 1601,
      "2020": 1602,
      "심사": 1603,
      "밤": 1604,
      "주인": 1605,
      "설계": 1606,
      "콘텐츠": 1607,
      "바이오": 1608,
      "스마트폰": 1609,
      "절차": 1610,
      "불구": 1611,
      "##회사": 1612,
      "매각": 1613,
      "고자": 1614,
      "진단": 1615,
      "사상": 1616,
      "트럼프": 1617,
      "칼": 1618,
      "##버지": 1619,
      "대체": 1620,
      "똑": 1621,
      "잖": 1622,
      "2010": 1623,
      "써": 1624,
      "요청": 1625,
      "33": 1626,
      "유치": 1627,
      "범죄": 1628,
      "2019": 1629,
      "##스로": 1630,
      "랑": 1631,
      "가진": 1632,
      "꼭": 1633,
      "엘": 1634,
      "대전": 1635,
      "공연": 1636,
      "그럼": 1637,
      "그동안": 1638,
      "∼": 1639,
      "300": 1640,
      "특징": 1641,
      "프로젝트": 1642,
      "앤": 1643,
      "그녀": 1644,
      "스럽": 1645,
      "인력": 1646,
      "낸": 1647,
      "소속": 1648,
      "타이": 1649,
      "강남": 1650,
      "콜": 1651,
      "레이": 1652,
      "싱": 1653,
      "현상": 1654,
      "읽": 1655,
      "##스터": 1656,
      "부품": 1657,
      "노조": 1658,
      "확진": 1659,
      "체험": 1660,
      "벗": 1661,
      "쓰레": 1662,
      "지하": 1663,
      "궁": 1664,
      "##가지": 1665,
      "아들": 1666,
      "잇": 1667,
      "줘": 1668,
      "차례": 1669,
      "청소": 1670,
      "J": 1671,
      "임금": 1672,
      "형성": 1673,
      "값": 1674,
      "섬": 1675,
      "감안": 1676,
      "술": 1677,
      "이르": 1678,
      "그대로": 1679,
      "흔": 1680,
      "측면": 1681,
      "작용": 1682,
      "연기": 1683,
      "다르": 1684,
      "g": 1685,
      "공감": 1686,
      "공무원": 1687,
      "스스로": 1688,
      "IT": 1689,
      "수주": 1690,
      "오르": 1691,
      "쓰레기": 1692,
      "수행": 1693,
      "박근": 1694,
      "언급": 1695,
      "올리": 1696,
      "사망": 1697,
      "도로": 1698,
      "제출": 1699,
      "파악": 1700,
      "저런": 1701,
      "시점": 1702,
      "땅": 1703,
      "e": 1704,
      "흑": 1705,
      "신문": 1706,
      "원인": 1707,
      "f": 1708,
      "척": 1709,
      "투표": 1710,
      "인증": 1711,
      "버리": 1712,
      "기념": 1713,
      "중단": 1714,
      "전통": 1715,
      "링": 1716,
      "빠르": 1717,
      "젊": 1718,
      "비슷": 1719,
      "재판": 1720,
      "스포": 1721,
      "연간": 1722,
      "198": 1723,
      "예술": 1724,
      "주제": 1725,
      "차별": 1726,
      "인구": 1727,
      "가량": 1728,
      "깊": 1729,
      "마스크": 1730,
      "곧": 1731,
      "추세": 1732,
      "구체": 1733,
      "정확": 1734,
      "반응": 1735,
      "뇌": 1736,
      "어려운": 1737,
      "코스피": 1738,
      "이게": 1739,
      "행복": 1740,
      "박근혜": 1741,
      "탑": 1742,
      "조작": 1743,
      "주로": 1744,
      "냉": 1745,
      "어도": 1746,
      "누가": 1747,
      "차원": 1748,
      "프랑스": 1749,
      "바라": 1750,
      "싫": 1751,
      "##운드": 1752,
      "2011": 1753,
      "평화": 1754,
      "꼬": 1755,
      "불과": 1756,
      "바탕": 1757,
      "셨": 1758,
      "발견": 1759,
      "45": 1760,
      "##이드": 1761,
      "실제로": 1762,
      "##레스": 1763,
      "염": 1764,
      "경기도": 1765,
      "재산": 1766,
      "축소": 1767,
      "확정": 1768,
      "논란": 1769,
      "알려졌": 1770,
      "꼴": 1771,
      "##한다": 1772,
      "정당": 1773,
      "34": 1774,
      "대우": 1775,
      "불법": 1776,
      "폴": 1777,
      "어린이": 1778,
      "건물": 1779,
      "류": 1780,
      "졸": 1781,
      "아래": 1782,
      "쉬": 1783,
      "시청": 1784,
      "외교": 1785,
      "##페인": 1786,
      "##화점": 1787,
      "이달": 1788,
      "더니": 1789,
      "딱": 1790,
      "순이": 1791,
      "건축": 1792,
      "매도": 1793,
      "앱": 1794,
      "배당": 1795,
      "유명": 1796,
      "교회": 1797,
      "현대차": 1798,
      "누리": 1799,
      "뉴욕": 1800,
      "익": 1801,
      "##나라": 1802,
      "강력": 1803,
      "결혼": 1804,
      "무료": 1805,
      "내놓": 1806,
      "소식": 1807,
      "불안": 1808,
      "전반": 1809,
      "ᅳ": 1810,
      "좌파": 1811,
      "나온다": 1812,
      "신한": 1813,
      "결제": 1814,
      "나타나": 1815,
      "은데": 1816,
      "매매": 1817,
      "으로부터": 1818,
      "플레이": 1819,
      "구속": 1820,
      "혈": 1821,
      "탓": 1822,
      "유로": 1823,
      "웨": 1824,
      "걱": 1825,
      "수상": 1826,
      "네이": 1827,
      "이끌": 1828,
      "편의": 1829,
      "목소리": 1830,
      "자세": 1831,
      "기초": 1832,
      "나이": 1833,
      "신뢰": 1834,
      "나서": 1835,
      "*": 1836,
      "만드": 1837,
      "공유": 1838,
      "꼽": 1839,
      "겁": 1840,
      "재무": 1841,
      "느냐": 1842,
      "걱정": 1843,
      "사업자": 1844,
      "손실": 1845,
      "국토": 1846,
      "##수록": 1847,
      "위안": 1848,
      "거쳐": 1849,
      "바이러스": 1850,
      "텍": 1851,
      "드라": 1852,
      "스포츠": 1853,
      "##ro": 1854,
      "기여": 1855,
      "절대": 1856,
      "##페이지": 1857,
      "가져": 1858,
      "당연": 1859,
      "취업": 1860,
      "화장": 1861,
      "홈페이지": 1862,
      "보고서": 1863,
      "텔": 1864,
      "지켜": 1865,
      "옥": 1866,
      "38": 1867,
      "조합": 1868,
      "주주": 1869,
      "밥": 1870,
      "적자": 1871,
      "네트": 1872,
      "리그": 1873,
      "##30": 1874,
      "제안": 1875,
      "창출": 1876,
      "단순": 1877,
      "김정": 1878,
      "순이익": 1879,
      "##디오": 1880,
      "공모": 1881,
      "작가": 1882,
      "했으나": 1883,
      "코리아": 1884,
      "출연": 1885,
      "점검": 1886,
      "KT": 1887,
      "채용": 1888,
      "프리미": 1889,
      "공산": 1890,
      "설비": 1891,
      "케이": 1892,
      "설정": 1893,
      "질문": 1894,
      "애플": 1895,
      "여론": 1896,
      "공항": 1897,
      "의혹": 1898,
      "전력": 1899,
      "대화": 1900,
      "37": 1901,
      "홍보": 1902,
      "통과": 1903,
      "채널": 1904,
      "예방": 1905,
      "앞두": 1906,
      "둔화": 1907,
      "시절": 1908,
      "체제": 1909,
      "##어지": 1910,
      "##의원": 1911,
      "@": 1912,
      "확장": 1913,
      "발언": 1914,
      "이어지": 1915,
      "총리": 1916,
      "셀": 1917,
      "텐": 1918,
      "해양": 1919,
      "52": 1920,
      "고민": 1921,
      "##el": 1922,
      "수수": 1923,
      "주문": 1924,
      "아버지": 1925,
      "새끼": 1926,
      "헬": 1927,
      "분명": 1928,
      "사라": 1929,
      "입주": 1930,
      "기억": 1931,
      "연장": 1932,
      "쓸": 1933,
      "백화점": 1934,
      "나와": 1935,
      "코스닥": 1936,
      "00": 1937,
      "시리": 1938,
      "으면서": 1939,
      "제일": 1940,
      "법원": 1941,
      "##스코": 1942,
      "##카오": 1943,
      "지식": 1944,
      "공부": 1945,
      "한다면": 1946,
      "시각": 1947,
      "국정": 1948,
      "올림": 1949,
      "져": 1950,
      "버스": 1951,
      "승리": 1952,
      "##니스": 1953,
      "전혀": 1954,
      "소프트": 1955,
      "기다": 1956,
      "첨": 1957,
      "균": 1958,
      "접근": 1959,
      "##갱이": 1960,
      "##증권": 1961,
      "미치": 1962,
      "자격": 1963,
      "장치": 1964,
      "ᄒ": 1965,
      "해소": 1966,
      "##아가": 1967,
      "시도": 1968,
      "부채": 1969,
      "보증": 1970,
      "변호": 1971,
      "공원": 1972,
      "근무": 1973,
      "독립": 1974,
      "빅": 1975,
      "일단": 1976,
      "묻": 1977,
      "인물": 1978,
      "디스": 1979,
      "요즘": 1980,
      "줬": 1981,
      "갤": 1982,
      "대선": 1983,
      "##et": 1984,
      "구나": 1985,
      "스토": 1986,
      "특성": 1987,
      "회담": 1988,
      "##as": 1989,
      "살펴": 1990,
      "베트": 1991,
      "특정": 1992,
      "진정": 1993,
      "의무": 1994,
      "려면": 1995,
      "동일": 1996,
      "된다고": 1997,
      "외부": 1998,
      "초기": 1999,
      "청약": 2000,
      "총선": 2001,
      "영역": 2002,
      "매력": 2003,
      "##프라": 2004,
      "이미지": 2005,
      "지주": 2006,
      "남성": 2007,
      "##회장": 2008,
      "상담": 2009,
      "2008": 2010,
      "감정": 2011,
      "현금": 2012,
      "51": 2013,
      "스타일": 2014,
      "오픈": 2015,
      "아닌가": 2016,
      "맨": 2017,
      "톤": 2018,
      "서울시": 2019,
      "거짓": 2020,
      "스트": 2021,
      "피부": 2022,
      "청구": 2023,
      "##우스": 2024,
      "시킨": 2025,
      "Yo": 2026,
      "상승세": 2027,
      "##드시": 2028,
      "인근": 2029,
      "보상": 2030,
      "통계": 2031,
      "2009": 2032,
      "탐": 2033,
      "협약": 2034,
      "드라마": 2035,
      "빨갱이": 2036,
      "나갈": 2037,
      "반드시": 2038,
      "점유": 2039,
      "지배": 2040,
      "42": 2041,
      "##he": 2042,
      "프리미엄": 2043,
      "잃": 2044,
      "베트남": 2045,
      "월드": 2046,
      "o": 2047,
      "남북": 2048,
      "투입": 2049,
      "올림픽": 2050,
      "순위": 2051,
      "순간": 2052,
      "팩": 2053,
      "어려움": 2054,
      "향상": 2055,
      "요금": 2056,
      "아마": 2057,
      "의장": 2058,
      "과제": 2059,
      "전부": 2060,
      "울산": 2061,
      "보건": 2062,
      "여름": 2063,
      "컬": 2064,
      "악화": 2065,
      "집계": 2066,
      "준다": 2067,
      "네이버": 2068,
      "카카오": 2069,
      "n": 2070,
      "손해": 2071,
      "39": 2072,
      "해석": 2073,
      "넓": 2074,
      "늘어나": 2075,
      "제약": 2076,
      "말씀": 2077,
      "셈": 2078,
      "빨리": 2079,
      "잖아": 2080,
      "매년": 2081,
      "위반": 2082,
      "48": 2083,
      "매입": 2084,
      "경남": 2085,
      "AI": 2086,
      "시리즈": 2087,
      "동물": 2088,
      "55": 2089,
      "쓴": 2090,
      "선진": 2091,
      "아울": 2092,
      "웹": 2093,
      "다소": 2094,
      "권력": 2095,
      "뜨": 2096,
      "곤": 2097,
      "털": 2098,
      "만족": 2099,
      "인프라": 2100,
      "석유": 2101,
      "그림": 2102,
      "늦": 2103,
      "약세": 2104,
      "진입": 2105,
      "##환경": 2106,
      "##워크": 2107,
      "세력": 2108,
      "복합": 2109,
      "괴": 2110,
      "의회": 2111,
      "##아들": 2112,
      "##무리": 2113,
      "국회의원": 2114,
      "이메": 2115,
      "캐릭": 2116,
      "연계": 2117,
      "처벌": 2118,
      "41": 2119,
      "부회장": 2120,
      "뒷": 2121,
      "##om": 2122,
      "소송": 2123,
      "끊": 2124,
      "##터리": 2125,
      "이메일": 2126,
      "훈련": 2127,
      "셋": 2128,
      "다이": 2129,
      "의식": 2130,
      "3000": 2131,
      "원장": 2132,
      "유동": 2133,
      "전일": 2134,
      "출발": 2135,
      "늘어": 2136,
      "##리오": 2137,
      "보통": 2138,
      "##ed": 2139,
      "빛": 2140,
      "캐릭터": 2141,
      "요소": 2142,
      "선발": 2143,
      "상위": 2144,
      "쯤": 2145,
      "모양": 2146,
      "전해": 2147,
      "방지": 2148,
      "심각": 2149,
      "유입": 2150,
      "##학교": 2151,
      "휘": 2152,
      "i": 2153,
      "h": 2154,
      "강원": 2155,
      "유리": 2156,
      "개념": 2157,
      "특수": 2158,
      "사과": 2159,
      "역량": 2160,
      "밑": 2161,
      "마치": 2162,
      "범위": 2163,
      "의지": 2164,
      "롭": 2165,
      "품질": 2166,
      "급등": 2167,
      "뱅": 2168,
      "집행": 2169,
      "한화": 2170,
      "민족": 2171,
      "마무리": 2172,
      "브라": 2173,
      "앉": 2174,
      "기대감": 2175,
      "가동": 2176,
      "법률": 2177,
      "기기": 2178,
      "ᄍ": 2179,
      "승인": 2180,
      "작성": 2181,
      "휴대": 2182,
      "대중": 2183,
      "떨어지": 2184,
      "##60": 2185,
      "외환": 2186,
      "실패": 2187,
      "마찬": 2188,
      "밝혀": 2189,
      "별도": 2190,
      "세트": 2191,
      "정비": 2192,
      "이탈": 2193,
      "여야": 2194,
      "가스": 2195,
      "소유": 2196,
      "베이": 2197,
      "##루션": 2198,
      "시켰": 2199,
      "세월": 2200,
      "계기": 2201,
      "마찬가지": 2202,
      "수급": 2203,
      "거래소": 2204,
      "신경": 2205,
      "##70": 2206,
      "##가리": 2207,
      "거기": 2208,
      "44": 2209,
      "획": 2210,
      "오래": 2211,
      "미디어": 2212,
      "느낌": 2213,
      "대학교": 2214,
      "기계": 2215,
      "근데": 2216,
      "노인": 2217,
      "근거": 2218,
      "이용자": 2219,
      "육성": 2220,
      "##il": 2221,
      "##ac": 2222,
      "완성": 2223,
      "동의": 2224,
      "똑같": 2225,
      "파이": 2226,
      "완료": 2227,
      "태양": 2228,
      "무기": 2229,
      "본다": 2230,
      "통상": 2231,
      "YoY": 2232,
      "당사": 2233,
      "재단": 2234,
      "수수료": 2235,
      "므로": 2236,
      "##ol": 2237,
      "그때": 2238,
      "지키": 2239,
      "촬": 2240,
      "엄청": 2241,
      "텔레": 2242,
      "당하": 2243,
      "##ED": 2244,
      "네트워크": 2245,
      "셔": 2246,
      "선언": 2247,
      "청소년": 2248,
      "시킬": 2249,
      "유일": 2250,
      "대변": 2251,
      "주거": 2252,
      "상향": 2253,
      "기타": 2254,
      "훨": 2255,
      "합병": 2256,
      "피해자": 2257,
      "옮": 2258,
      "PC": 2259,
      "보안": 2260,
      "쌓": 2261,
      "꽃": 2262,
      "똥": 2263,
      "만기": 2264,
      "엄마": 2265,
      "열리": 2266,
      "매일": 2267,
      "지요": 2268,
      "나요": 2269,
      "기부": 2270,
      "X": 2271,
      "촬영": 2272,
      "원자": 2273,
      "자식": 2274,
      "노래": 2275,
      "밸": 2276,
      "면적": 2277,
      "##공업": 2278,
      "자녀": 2279,
      "영어": 2280,
      "##항공": 2281,
      "친환경": 2282,
      "##른다": 2283,
      "벤처": 2284,
      "겸": 2285,
      "총장": 2286,
      "모집": 2287,
      "학습": 2288,
      "된다는": 2289,
      "연말": 2290,
      "줄이": 2291,
      "리스크": 2292,
      "다운": 2293,
      "아요": 2294,
      "원칙": 2295,
      "통일": 2296,
      "파트": 2297,
      "직장": 2298,
      "49": 2299,
      "제발": 2300,
      "비즈": 2301,
      "불리": 2302,
      "자율": 2303,
      "래": 2304,
      "정리": 2305,
      "##ig": 2306,
      "갈등": 2307,
      "43": 2308,
      "65": 2309,
      "OO": 2310,
      "구입": 2311,
      "바뀌": 2312,
      "나선": 2313,
      "칭": 2314,
      "쌍": 2315,
      "봉사": 2316,
      "토론": 2317,
      "솔루션": 2318,
      "정기": 2319,
      "증거": 2320,
      "불가": 2321,
      "번호": 2322,
      "이슈": 2323,
      "커피": 2324,
      "그래도": 2325,
      "물질": 2326,
      "선생": 2327,
      "연구소": 2328,
      "르": 2329,
      "홍콩": 2330,
      "이건": 2331,
      "떠나": 2332,
      "아름": 2333,
      "아울러": 2334,
      "##BC": 2335,
      "테크": 2336,
      "하나님": 2337,
      "계열사": 2338,
      "달라": 2339,
      "덜": 2340,
      "국채": 2341,
      "인권": 2342,
      "y": 2343,
      "배치": 2344,
      "나섰": 2345,
      "디스플레이": 2346,
      "컴퓨": 2347,
      "무대": 2348,
      "인공": 2349,
      "삭": 2350,
      "##ent": 2351,
      "수석": 2352,
      "맞춰": 2353,
      "토지": 2354,
      "냈": 2355,
      "빠른": 2356,
      "인생": 2357,
      "##스타": 2358,
      "소통": 2359,
      "OOO": 2360,
      "실질": 2361,
      "내리": 2362,
      "훨씬": 2363,
      "신천": 2364,
      "이자": 2365,
      "아침": 2366,
      "느끼": 2367,
      "전세": 2368,
      "챙": 2369,
      "메이": 2370,
      "역대": 2371,
      "점수": 2372,
      "탄핵": 2373,
      "패션": 2374,
      "기아": 2375,
      "예측": 2376,
      "방역": 2377,
      "도전": 2378,
      "돌파": 2379,
      "거래일": 2380,
      "##직원": 2381,
      "나머": 2382,
      "이래": 2383,
      "흘": 2384,
      "부장": 2385,
      "종교": 2386,
      "으려": 2387,
      "강한": 2388,
      "저작": 2389,
      "융": 2390,
      "허가": 2391,
      "노선": 2392,
      "객": 2393,
      "전월": 2394,
      "접수": 2395,
      "늘어난": 2396,
      "그린": 2397,
      "혹은": 2398,
      "교사": 2399,
      "표시": 2400,
      "나머지": 2401,
      "CJ": 2402,
      "##un": 2403,
      "런": 2404,
      "자치": 2405,
      "골프": 2406,
      "맺": 2407,
      "거부": 2408,
      "주력": 2409,
      "천만": 2410,
      "일으": 2411,
      "농업": 2412,
      "CE": 2413,
      "주의": 2414,
      "뿌": 2415,
      "안타": 2416,
      "옆": 2417,
      "변호사": 2418,
      "당장": 2419,
      "사기": 2420,
      "##산물": 2421,
      "조달": 2422,
      "##리카": 2423,
      "에스": 2424,
      "스러운": 2425,
      "체육": 2426,
      "블록": 2427,
      "뮤": 2428,
      "신천지": 2429,
      "이내": 2430,
      "##구나": 2431,
      "약속": 2432,
      "자주": 2433,
      "##다가": 2434,
      "아동": 2435,
      "법무": 2436,
      "46": 2437,
      "교체": 2438,
      "성능": 2439,
      "59": 2440,
      "그게": 2441,
      "우승": 2442,
      "렌": 2443,
      "75": 2444,
      "흡": 2445,
      "축구": 2446,
      "자는": 2447,
      "고등": 2448,
      "야당": 2449,
      "듯이": 2450,
      "실현": 2451,
      "미세": 2452,
      "판결": 2453,
      "선호": 2454,
      "47": 2455,
      "봐야": 2456,
      "량": 2457,
      "조기": 2458,
      "구역": 2459,
      "##st": 2460,
      "부르": 2461,
      "기구": 2462,
      "특허": 2463,
      "회계": 2464,
      "여러분": 2465,
      "표준": 2466,
      "항상": 2467,
      "백신": 2468,
      "혼자": 2469,
      "54": 2470,
      "허용": 2471,
      "굴": 2472,
      "겨울": 2473,
      "받아들": 2474,
      "군사": 2475,
      "축제": 2476,
      "철저": 2477,
      "부여": 2478,
      "응답": 2479,
      "성적": 2480,
      "취득": 2481,
      "당선": 2482,
      "개편": 2483,
      "봄": 2484,
      "그리스": 2485,
      "배터리": 2486,
      "샤": 2487,
      "배경": 2488,
      "아프": 2489,
      "침체": 2490,
      "지사": 2491,
      "트리": 2492,
      "84": 2493,
      "자회사": 2494,
      "제조업": 2495,
      "바란": 2496,
      "꾸준": 2497,
      "포기": 2498,
      "대사": 2499,
      "일상": 2500,
      "##요일": 2501,
      "400": 2502,
      "전남": 2503,
      "예비": 2504,
      "부대": 2505,
      "##피스": 2506,
      "저축": 2507,
      "##매도": 2508,
      "뭘": 2509,
      "절반": 2510,
      "초등": 2511,
      "가계": 2512,
      "수원": 2513,
      "담보": 2514,
      "근로자": 2515,
      "처분": 2516,
      "지상": 2517,
      "원래": 2518,
      "하늘": 2519,
      "즈": 2520,
      "하향": 2521,
      "보조": 2522,
      "지점": 2523,
      "국방": 2524,
      "옵": 2525,
      "ᄍᄍ": 2526,
      "돌아가": 2527,
      "미친": 2528,
      "단위": 2529,
      "폐지": 2530,
      "중간": 2531,
      "다면서": 2532,
      "블랙": 2533,
      "개국": 2534,
      "##ation": 2535,
      "부부": 2536,
      "서민": 2537,
      "경북": 2538,
      "장소": 2539,
      "쏟": 2540,
      "선동": 2541,
      "동반": 2542,
      "만약": 2543,
      "구간": 2544,
      "컴퓨터": 2545,
      "고급": 2546,
      "수술": 2547,
      "션": 2548,
      "##메라": 2549,
      "유사": 2550,
      "로봇": 2551,
      "##웨어": 2552,
      "텀": 2553,
      "##ec": 2554,
      "부과": 2555,
      "인터뷰": 2556,
      "알리": 2557,
      "재미": 2558,
      "중공업": 2559,
      "나타내": 2560,
      "##총리": 2561,
      "더라": 2562,
      "농협": 2563,
      "철도": 2564,
      "졸업": 2565,
      "##am": 2566,
      "내수": 2567,
      "혁명": 2568,
      "나올": 2569,
      "고속": 2570,
      "나무": 2571,
      "이곳": 2572,
      "공단": 2573,
      "##건설": 2574,
      "2007": 2575,
      "물류": 2576,
      "어머니": 2577,
      "미사": 2578,
      "##카드": 2579,
      "의한": 2580,
      "최선": 2581,
      "공인": 2582,
      "ᅲ": 2583,
      "프레": 2584,
      "비상": 2585,
      "검색": 2586,
      "아베": 2587,
      "옛": 2588,
      "권리": 2589,
      "##리지": 2590,
      "옷": 2591,
      "일어나": 2592,
      "##공사": 2593,
      "실장": 2594,
      "자랑": 2595,
      "바꾸": 2596,
      "상환": 2597,
      "빚": 2598,
      "멤": 2599,
      "원전": 2600,
      "누적": 2601,
      "충격": 2602,
      "급증": 2603,
      "초과": 2604,
      "로운": 2605,
      "돼지": 2606,
      "##라스": 2607,
      "짐": 2608,
      "거주": 2609,
      "##ER": 2610,
      "생기": 2611,
      "내린": 2612,
      "임직원": 2613,
      "이란": 2614,
      "플러스": 2615,
      "불러": 2616,
      "화재": 2617,
      "소설": 2618,
      "이랑": 2619,
      "났": 2620,
      "상호": 2621,
      "포스코": 2622,
      "둘러": 2623,
      "통제": 2624,
      "53": 2625,
      "제재": 2626,
      "증권사": 2627,
      "##20": 2628,
      "논리": 2629,
      "합리": 2630,
      "58": 2631,
      "법안": 2632,
      "초반": 2633,
      "겁니다": 2634,
      "부지": 2635,
      "화장품": 2636,
      "안내": 2637,
      "마리": 2638,
      "불편": 2639,
      "소폭": 2640,
      "다수": 2641,
      "발굴": 2642,
      "실업": 2643,
      "극복": 2644,
      "수단": 2645,
      "본사": 2646,
      "ᄒᄒ": 2647,
      "전투": 2648,
      "스테": 2649,
      "남편": 2650,
      "_": 2651,
      "수정": 2652,
      "개별": 2653,
      "분리": 2654,
      "150": 2655,
      "상관": 2656,
      "가상": 2657,
      "카메라": 2658,
      "재고": 2659,
      "드리": 2660,
      "빠져": 2661,
      "연방": 2662,
      "재료": 2663,
      "아라": 2664,
      "의심": 2665,
      "조차": 2666,
      "센서": 2667,
      "품목": 2668,
      "바다": 2669,
      "##널리": 2670,
      "\\": 2671,
      "85": 2672,
      "카페": 2673,
      "취소": 2674,
      "GS": 2675,
      "64": 2676,
      "아도": 2677,
      "고정": 2678,
      "##OS": 2679,
      "세기": 2680,
      "움직임": 2681,
      "56": 2682,
      "벽": 2683,
      "99": 2684,
      "참고": 2685,
      "줄어들": 2686,
      "메시": 2687,
      "입국": 2688,
      "신세": 2689,
      "여건": 2690,
      "미리": 2691,
      "신설": 2692,
      "##시다": 2693,
      "아무리": 2694,
      "결합": 2695,
      "께서": 2696,
      "임명": 2697,
      "비즈니스": 2698,
      "올려": 2699,
      "족": 2700,
      "득": 2701,
      "비리": 2702,
      "성격": 2703,
      "##학생": 2704,
      "살아": 2705,
      "이외": 2706,
      "##자기": 2707,
      "v": 2708,
      "넥": 2709,
      "한계": 2710,
      "앨": 2711,
      "엑": 2712,
      "텐데": 2713,
      "차단": 2714,
      "##일보": 2715,
      "학년": 2716,
      "벨": 2717,
      "철강": 2718,
      "리더": 2719,
      "##리어": 2720,
      "주간": 2721,
      "도와": 2722,
      "배출": 2723,
      "걸쳐": 2724,
      "공기": 2725,
      "돕": 2726,
      "##어진": 2727,
      "수용": 2728,
      "운전": 2729,
      "살펴보": 2730,
      "임상": 2731,
      "##ur": 2732,
      "엠": 2733,
      "새롭": 2734,
      "4000": 2735,
      "면세": 2736,
      "무시": 2737,
      "투명": 2738,
      "균형": 2739,
      "##CD": 2740,
      "예약": 2741,
      "칠": 2742,
      "부인": 2743,
      "수업": 2744,
      "ᄉ": 2745,
      "##니아": 2746,
      "실천": 2747,
      "전하": 2748,
      "열심": 2749,
      "급락": 2750,
      "대만": 2751,
      "##ut": 2752,
      "낼": 2753,
      "mm": 2754,
      "맞춤": 2755,
      "멤버": 2756,
      "미술": 2757,
      "대폭": 2758,
      "미만": 2759,
      "슈퍼": 2760,
      "모아": 2761,
      "주행": 2762,
      "괜": 2763,
      "강제": 2764,
      "굳": 2765,
      "##80": 2766,
      "직업": 2767,
      "맘": 2768,
      "두산": 2769,
      "대변인": 2770,
      "IP": 2771,
      "거든": 2772,
      "##티브": 2773,
      "집회": 2774,
      "선임": 2775,
      "구분": 2776,
      "당초": 2777,
      "묘": 2778,
      "57": 2779,
      "필수": 2780,
      "주말": 2781,
      "인재": 2782,
      "상업": 2783,
      "위협": 2784,
      "고통": 2785,
      "는데요": 2786,
      "생태": 2787,
      ">": 2788,
      "2021": 2789,
      "짧": 2790,
      "커지": 2791,
      "키로": 2792,
      "가슴": 2793,
      "오프": 2794,
      "아름다": 2795,
      "방어": 2796,
      "##BS": 2797,
      "달하": 2798,
      "폰": 2799,
      "##닉스": 2800,
      "w": 2801,
      "노동자": 2802,
      "전면": 2803,
      "을지": 2804,
      "이재": 2805,
      "부처": 2806,
      "임원": 2807,
      "가입자": 2808,
      "계산": 2809,
      "ET": 2810,
      "벗어나": 2811,
      "선박": 2812,
      "위주": 2813,
      "원내": 2814,
      "시가": 2815,
      "에어": 2816,
      "문학": 2817,
      "가까이": 2818,
      "##ot": 2819,
      "딜": 2820,
      "나누": 2821,
      "장점": 2822,
      "일제": 2823,
      "바닥": 2824,
      "##id": 2825,
      "가리": 2826,
      "검증": 2827,
      "연출": 2828,
      "진보": 2829,
      "봐라": 2830,
      "##담회": 2831,
      "이어질": 2832,
      "62": 2833,
      "도서": 2834,
      "지자": 2835,
      "제거": 2836,
      "연준": 2837,
      "국립": 2838,
      "##DP": 2839,
      "독재": 2840,
      "분류": 2841,
      "적절": 2842,
      "넷": 2843,
      "이거": 2844,
      "종료": 2845,
      "알아": 2846,
      "계좌": 2847,
      "호조": 2848,
      "걷": 2849,
      "늘리": 2850,
      "호주": 2851,
      "지출": 2852,
      "한데": 2853,
      "국무": 2854,
      "뻔": 2855,
      "국내외": 2856,
      "엔진": 2857,
      "시티": 2858,
      "전형": 2859,
      "유니": 2860,
      "학원": 2861,
      "##리트": 2862,
      "여당": 2863,
      "안보": 2864,
      "수소": 2865,
      "박사": 2866,
      "입찰": 2867,
      "2005": 2868,
      "한국인": 2869,
      "출범": 2870,
      "km": 2871,
      "실험": 2872,
      "우주": 2873,
      "끌어": 2874,
      "신종": 2875,
      "상회": 2876,
      "텔레콤": 2877,
      "팀장": 2878,
      "긴급": 2879,
      "간담회": 2880,
      "원유": 2881,
      "응원": 2882,
      "진실": 2883,
      "대리": 2884,
      "떨어진": 2885,
      "이른": 2886,
      "기조": 2887,
      "메시지": 2888,
      "흑자": 2889,
      "력": 2890,
      "수립": 2891,
      "600": 2892,
      "가르": 2893,
      "건데": 2894,
      "마켓": 2895,
      "197": 2896,
      "저렴": 2897,
      "유도": 2898,
      "##반도": 2899,
      "가짜": 2900,
      "61": 2901,
      "유출": 2902,
      "질환": 2903,
      "할지": 2904,
      "갤럭": 2905,
      "메뉴": 2906,
      "미사일": 2907,
      "반복": 2908,
      "양성": 2909,
      "마시": 2910,
      "갤럭시": 2911,
      "주인공": 2912,
      "갖추": 2913,
      "주년": 2914,
      "잊": 2915,
      "독자": 2916,
      "명령": 2917,
      "과장": 2918,
      "##간다": 2919,
      "CEO": 2920,
      "부상": 2921,
      "쥐": 2922,
      "압력": 2923,
      "취급": 2924,
      "2006": 2925,
      "개정안": 2926,
      "야구": 2927,
      "신속": 2928,
      "판사": 2929,
      "##PI": 2930,
      "총회": 2931,
      "총재": 2932,
      "전북": 2933,
      "##세대": 2934,
      "##케이션": 2935,
      "##웨이": 2936,
      "헌법": 2937,
      "95": 2938,
      "는구나": 2939,
      "정체": 2940,
      "##us": 2941,
      "친일": 2942,
      "##조건": 2943,
      "커뮤": 2944,
      "점차": 2945,
      "짱": 2946,
      "떨어졌": 2947,
      "찌": 2948,
      "커뮤니": 2949,
      "##40": 2950,
      "6000": 2951,
      "교류": 2952,
      "동원": 2953,
      "전기차": 2954,
      "대기": 2955,
      "##ad": 2956,
      "절감": 2957,
      "요리": 2958,
      "화면": 2959,
      "##ul": 2960,
      "시위": 2961,
      "해운": 2962,
      "타임": 2963,
      "언어": 2964,
      "대금": 2965,
      "##돼지": 2966,
      "관세": 2967,
      "주차": 2968,
      "비난": 2969,
      "평소": 2970,
      "신호": 2971,
      "클럽": 2972,
      "##iv": 2973,
      "투기": 2974,
      "즐길": 2975,
      "선진국": 2976,
      "뱅크": 2977,
      "취약": 2978,
      "이명": 2979,
      "63": 2980,
      "섹": 2981,
      "첨단": 2982,
      "선보이": 2983,
      "지자체": 2984,
      "와서": 2985,
      "8000": 2986,
      "종류": 2987,
      "수지": 2988,
      "고위": 2989,
      "단독": 2990,
      "킹": 2991,
      "사법": 2992,
      "전개": 2993,
      "지연": 2994,
      "무리": 2995,
      "##거래": 2996,
      "김정은": 2997,
      "가까운": 2998,
      "몽": 2999,
      "##거운": 3000,
      "갖춘": 3001,
      "사실상": 3002,
      "멋": 3003,
      "실시간": 3004,
      "위하": 3005,
      "줄어": 3006,
      "마쳤": 3007,
      "들여": 3008,
      "캠페인": 3009,
      "깔": 3010,
      "너희": 3011,
      "한반도": 3012,
      "판매량": 3013,
      "택시": 3014,
      "이행": 3015,
      "무조건": 3016,
      "페이스": 3017,
      "장면": 3018,
      "뷰": 3019,
      "펼쳐": 3020,
      "사유": 3021,
      "재난": 3022,
      "보험료": 3023,
      "이탈리아": 3024,
      "아내": 3025,
      "In": 3026,
      "비행": 3027,
      "창조": 3028,
      "##먼지": 3029,
      "쌀": 3030,
      "부사": 3031,
      "덕분": 3032,
      "가전": 3033,
      "관광객": 3034,
      "물건": 3035,
      "올렸": 3036,
      "식사": 3037,
      "민주주의": 3038,
      "72": 3039,
      "꾼": 3040,
      "크기": 3041,
      "페이": 3042,
      "임시": 3043,
      "인원": 3044,
      "그걸": 3045,
      "가맹": 3046,
      "대단": 3047,
      "##PS": 3048,
      "일시": 3049,
      "실행": 3050,
      "##니어": 3051,
      "취임": 3052,
      "오랜": 3053,
      "미세먼지": 3054,
      "트렌": 3055,
      "부실": 3056,
      "가득": 3057,
      "집값": 3058,
      "대주": 3059,
      "국장": 3060,
      "후원": 3061,
      "스타트": 3062,
      "갑자기": 3063,
      "##MC": 3064,
      "지시": 3065,
      "기금": 3066,
      "탁": 3067,
      "##고기": 3068,
      "살인": 3069,
      "편리": 3070,
      "후반": 3071,
      "##10": 3072,
      "위축": 3073,
      "경상": 3074,
      "성장세": 3075,
      "사정": 3076,
      "기울": 3077,
      "라면서": 3078,
      "에이": 3079,
      "대하": 3080,
      "66": 3081,
      "2004": 3082,
      "동향": 3083,
      "건가": 3084,
      "나타냈": 3085,
      "핑": 3086,
      "마트": 3087,
      "어찌": 3088,
      "경고": 3089,
      "실수": 3090,
      "개입": 3091,
      "구글": 3092,
      "이기": 3093,
      "의도": 3094,
      "신세계": 3095,
      "중국인": 3096,
      "##ap": 3097,
      "##로드": 3098,
      "재개": 3099,
      "##우드": 3100,
      "굉": 3101,
      "진다": 3102,
      "어쩌": 3103,
      "화폐": 3104,
      "흔들": 3105,
      "추구": 3106,
      "이뤄지": 3107,
      "오피스": 3108,
      "했었": 3109,
      "포트": 3110,
      "##가스": 3111,
      "주체": 3112,
      "회견": 3113,
      "평생": 3114,
      "원가": 3115,
      "계층": 3116,
      "거짓말": 3117,
      "##리티": 3118,
      "핀": 3119,
      "개방": 3120,
      "내렸": 3121,
      "##지능": 3122,
      "##op": 3123,
      "파트너": 3124,
      "전주": 3125,
      "##그룹": 3126,
      "마저": 3127,
      "거듭": 3128,
      "부각": 3129,
      "수치": 3130,
      "예금": 3131,
      "인공지능": 3132,
      "소장": 3133,
      "정규": 3134,
      "서울대": 3135,
      "강하": 3136,
      "습니까": 3137,
      "7000": 3138,
      "취지": 3139,
      "명예": 3140,
      "보일": 3141,
      "바란다": 3142,
      "순환": 3143,
      "분쟁": 3144,
      "동아": 3145,
      "비밀": 3146,
      "아이템": 3147,
      "밴": 3148,
      "급격": 3149,
      "##NS": 3150,
      "궁금": 3151,
      "하고": 3152,
      "세종": 3153,
      "돌려": 3154,
      "하락세": 3155,
      "측정": 3156,
      "관측": 3157,
      "인민": 3158,
      "가수": 3159,
      "이론": 3160,
      "즐기": 3161,
      "뚜": 3162,
      "빵": 3163,
      "낳": 3164,
      "한도": 3165,
      "항목": 3166,
      "##레이드": 3167,
      "##TA": 3168,
      "충남": 3169,
      "의약": 3170,
      "기소": 3171,
      "조절": 3172,
      "앙": 3173,
      "태도": 3174,
      "는다는": 3175,
      "##대표": 3176,
      "개돼지": 3177,
      "해야지": 3178,
      "저장": 3179,
      "이때": 3180,
      "클라": 3181,
      "건지": 3182,
      "키우": 3183,
      "자국": 3184,
      "소방": 3185,
      "IC": 3186,
      "나중": 3187,
      "거래량": 3188,
      "자고": 3189,
      "노무": 3190,
      "맹": 3191,
      "일까": 3192,
      "굉장": 3193,
      "점점": 3194,
      "관점": 3195,
      "|": 3196,
      "상무": 3197,
      "어라": 3198,
      "소형": 3199,
      "동부": 3200,
      "EU": 3201,
      "강의": 3202,
      "촉구": 3203,
      "주일": 3204,
      "순매도": 3205,
      "현황": 3206,
      "통신사": 3207,
      "직후": 3208,
      "제고": 3209,
      "풍부": 3210,
      "배달": 3211,
      "케어": 3212,
      "이마트": 3213,
      "결론": 3214,
      "전원": 3215,
      "반발": 3216,
      "북미": 3217,
      "면세점": 3218,
      "군대": 3219,
      "성향": 3220,
      "주관": 3221,
      "해요": 3222,
      "동력": 3223,
      "조용": 3224,
      "서류": 3225,
      "##너스": 3226,
      "잠재": 3227,
      "춘": 3228,
      "도착": 3229,
      "한정": 3230,
      "68": 3231,
      "컨설": 3232,
      "직전": 3233,
      "닥": 3234,
      "구현": 3235,
      "국면": 3236,
      "충전": 3237,
      "압박": 3238,
      "크리스": 3239,
      "NH": 3240,
      "중대": 3241,
      "양호": 3242,
      "고요": 3243,
      "제정": 3244,
      "정치인": 3245,
      "나쁜": 3246,
      "고양": 3247,
      "연대": 3248,
      "가시": 3249,
      "저녁": 3250,
      "변수": 3251,
      "아예": 3252,
      "투어": 3253,
      "##립니다": 3254,
      "학부": 3255,
      "레드": 3256,
      "800": 3257,
      "소프트웨어": 3258,
      "횡": 3259,
      "예전": 3260,
      "도대": 3261,
      "수혜": 3262,
      "x": 3263,
      "선도": 3264,
      "120": 3265,
      "경계": 3266,
      "기아차": 3267,
      "69": 3268,
      "이틀": 3269,
      "비전": 3270,
      "마이크": 3271,
      "재생": 3272,
      "통해서": 3273,
      "느껴": 3274,
      "67": 3275,
      "아닐": 3276,
      "파일": 3277,
      "죽음": 3278,
      "활발": 3279,
      "지지율": 3280,
      "공약": 3281,
      "노트": 3282,
      "차관": 3283,
      "데이": 3284,
      "모임": 3285,
      "떼": 3286,
      "끼리": 3287,
      "유형": 3288,
      "훌": 3289,
      "##ay": 3290,
      "부탁": 3291,
      "재건": 3292,
      "차익": 3293,
      "츠": 3294,
      "도대체": 3295,
      "##총액": 3296,
      "시가총액": 3297,
      "든지": 3298,
      "기분": 3299,
      "모니": 3300,
      "맥주": 3301,
      "선고": 3302,
      "윈": 3303,
      "부양": 3304,
      "패널": 3305,
      "파크": 3306,
      "형식": 3307,
      "충북": 3308,
      "폭력": 3309,
      "파워": 3310,
      "클래": 3311,
      "##튜브": 3312,
      "테마": 3313,
      "##플레이션": 3314,
      "아웃": 3315,
      "포장": 3316,
      "73": 3317,
      "형사": 3318,
      "돼야": 3319,
      "큐": 3320,
      "상하": 3321,
      "획득": 3322,
      "레벨": 3323,
      "광역": 3324,
      "금감": 3325,
      "심의": 3326,
      "닭": 3327,
      "예고": 3328,
      "비트": 3329,
      "급여": 3330,
      "접촉": 3331,
      "줘야": 3332,
      "쏘": 3333,
      "나눠": 3334,
      "탄소": 3335,
      "메모": 3336,
      "점포": 3337,
      "불가피": 3338,
      "생긴": 3339,
      "박스": 3340,
      "74": 3341,
      "77": 3342,
      "배송": 3343,
      "##and": 3344,
      "테이": 3345,
      "사퇴": 3346,
      "##영상": 3347,
      "제목": 3348,
      "시세": 3349,
      "대안": 3350,
      "폭발": 3351,
      "##평균": 3352,
      "채무": 3353,
      "따뜻": 3354,
      "벌이": 3355,
      "천억": 3356,
      "빗": 3357,
      "포럼": 3358,
      "기다리": 3359,
      "질병": 3360,
      "탑재": 3361,
      "협의회": 3362,
      "스위": 3363,
      "지하철": 3364,
      "ᄌ": 3365,
      "##란드": 3366,
      "할까": 3367,
      "앨범": 3368,
      "예수": 3369,
      "답변": 3370,
      "심판": 3371,
      "달려": 3372,
      "##랍니다": 3373,
      "당부": 3374,
      "폐기": 3375,
      "따로": 3376,
      "196": 3377,
      "치료제": 3378,
      "##ow": 3379,
      "추석": 3380,
      "연료": 3381,
      "r": 3382,
      "상공": 3383,
      "스타트업": 3384,
      "법무부": 3385,
      "엔터": 3386,
      "띄": 3387,
      "타격": 3388,
      "##산업": 3389,
      "##이너": 3390,
      "##NG": 3391,
      "매체": 3392,
      "공화": 3393,
      "상생": 3394,
      "운행": 3395,
      "용품": 3396,
      "코드": 3397,
      "머물": 3398,
      "멍": 3399,
      "섭": 3400,
      "스페인": 3401,
      "과세": 3402,
      "스토리": 3403,
      "우위": 3404,
      "유기": 3405,
      "시사": 3406,
      "실력": 3407,
      "테스트": 3408,
      "할머니": 3409,
      "소셜": 3410,
      "부총리": 3411,
      "내다": 3412,
      "보급": 3413,
      "인정받": 3414,
      "죽이": 3415,
      "##직자": 3416,
      "71": 3417,
      "대주주": 3418,
      "##다면": 3419,
      "저희": 3420,
      "희생": 3421,
      "##일리": 3422,
      "정지": 3423,
      "교환": 3424,
      "깜": 3425,
      "이사장": 3426,
      "문자": 3427,
      "걸리": 3428,
      "모여": 3429,
      "##어도": 3430,
      "아이디어": 3431,
      "부사장": 3432,
      "촛": 3433,
      "라운드": 3434,
      "##수기": 3435,
      "##ag": 3436,
      "비서": 3437,
      "적폐": 3438,
      "가을": 3439,
      "단어": 3440,
      "증명": 3441,
      "성분": 3442,
      "동영상": 3443,
      "없애": 3444,
      "닷": 3445,
      "##ch": 3446,
      "모니터": 3447,
      "버렸": 3448,
      "미군": 3449,
      "문서": 3450,
      "상징": 3451,
      "수많": 3452,
      "9000": 3453,
      "동양": 3454,
      "동네": 3455,
      "냐고": 3456,
      "철학": 3457,
      "트렌드": 3458,
      "당기": 3459,
      "봐도": 3460,
      "당분": 3461,
      "던지": 3462,
      "노출": 3463,
      "2022": 3464,
      "자사": 3465,
      "아님": 3466,
      "운송": 3467,
      "의약품": 3468,
      "하우스": 3469,
      "바꿔": 3470,
      "뿌리": 3471,
      "상상": 3472,
      "고소": 3473,
      "##성장": 3474,
      "일어": 3475,
      "비대": 3476,
      "##버스": 3477,
      "그럴": 3478,
      "싸움": 3479,
      "협업": 3480,
      "스탠": 3481,
      "대가리": 3482,
      "짜리": 3483,
      "누군": 3484,
      "물리": 3485,
      "이젠": 3486,
      "무능": 3487,
      "잉": 3488,
      "##으니": 3489,
      "는다고": 3490,
      "완벽": 3491,
      "총괄": 3492,
      "풀이": 3493,
      "정해": 3494,
      "양국": 3495,
      "자극": 3496,
      "썼": 3497,
      "GDP": 3498,
      "과연": 3499,
      "에요": 3500,
      "한다며": 3501,
      "태양광": 3502,
      "##키지": 3503,
      "##od": 3504,
      "시중": 3505,
      "700": 3506,
      "휴대폰": 3507,
      "여의": 3508,
      "패키지": 3509,
      "약간": 3510,
      "으니까": 3511,
      "76": 3512,
      "깨끗": 3513,
      "다리": 3514,
      "관람": 3515,
      "##세요": 3516,
      "쾌": 3517,
      "게다가": 3518,
      "음성": 3519,
      "바라보": 3520,
      "옵션": 3521,
      "협정": 3522,
      "들어오": 3523,
      "오염": 3524,
      "전지": 3525,
      "향해": 3526,
      "저지": 3527,
      "임기": 3528,
      "뛰어": 3529,
      "패턴": 3530,
      "몬": 3531,
      "식당": 3532,
      "법정": 3533,
      "토착": 3534,
      "고발": 3535,
      "멈": 3536,
      "증상": 3537,
      "괜찮": 3538,
      "$": 3539,
      "권한": 3540,
      "촛불": 3541,
      "눈물": 3542,
      "마진": 3543,
      "놀라": 3544,
      "통하": 3545,
      "간단": 3546,
      "브라질": 3547,
      "금속": 3548,
      "컸": 3549,
      "당분간": 3550,
      "의존": 3551,
      "공제": 3552,
      "2003": 3553,
      "수집": 3554,
      "예요": 3555,
      "지원금": 3556,
      "원내대표": 3557,
      "감시": 3558,
      "동남": 3559,
      "과도": 3560,
      "##90": 3561,
      "컨설팅": 3562,
      "담배": 3563,
      "낭": 3564,
      "건전": 3565,
      "82": 3566,
      "파괴": 3567,
      "촉진": 3568,
      "펜": 3569,
      "키워": 3570,
      "숲": 3571,
      "##나다": 3572,
      "ᄂ": 3573,
      "판정": 3574,
      "듀": 3575,
      "내세": 3576,
      "연예": 3577,
      "대법": 3578,
      "발사": 3579,
      "냄": 3580,
      "적합": 3581,
      "청문": 3582,
      "덮": 3583,
      "움직이": 3584,
      "아름다운": 3585,
      "보관": 3586,
      "델": 3587,
      "88": 3588,
      "붕": 3589,
      "로써": 3590,
      "금감원": 3591,
      "교육청": 3592,
      "이중": 3593,
      "페이스북": 3594,
      "가공": 3595,
      "그만큼": 3596,
      "아르": 3597,
      "##으면": 3598,
      "온도": 3599,
      "98": 3600,
      "ES": 3601,
      "쟁": 3602,
      "하이닉스": 3603,
      "##난다": 3604,
      "숫": 3605,
      "칸": 3606,
      "건수": 3607,
      "IM": 3608,
      "단일": 3609,
      "가속": 3610,
      "회수": 3611,
      "장사": 3612,
      "근본": 3613,
      "성인": 3614,
      "햇": 3615,
      "게시": 3616,
      "월드컵": 3617,
      "최적": 3618,
      "78": 3619,
      "##정부": 3620,
      "##조합": 3621,
      "해제": 3622,
      "바른": 3623,
      "##바로": 3624,
      "가졌": 3625,
      "부서": 3626,
      "최악": 3627,
      "된다면": 3628,
      "못해": 3629,
      "자살": 3630,
      "IB": 3631,
      "자한": 3632,
      "튀": 3633,
      "연령": 3634,
      "연락": 3635,
      "##im": 3636,
      "목사": 3637,
      "상가": 3638,
      "화물": 3639,
      "생겼": 3640,
      "가로": 3641,
      "##em": 3642,
      "현행": 3643,
      "묵": 3644,
      "베스트": 3645,
      "한당": 3646,
      "빙": 3647,
      "##비아": 3648,
      "나아가": 3649,
      "대처": 3650,
      "랩": 3651,
      "플랜": 3652,
      "잠시": 3653,
      "컬러": 3654,
      "믹": 3655,
      "경향": 3656,
      "무선": 3657,
      "경력": 3658,
      "직무": 3659,
      "고등학교": 3660,
      "불만": 3661,
      "ᅳᅳ": 3662,
      "노사": 3663,
      "고령": 3664,
      "##지어": 3665,
      "보완": 3666,
      "종이": 3667,
      "데뷔": 3668,
      "##나마": 3669,
      "긴장": 3670,
      "탄생": 3671,
      "도심": 3672,
      "세부": 3673,
      "개설": 3674,
      "대외": 3675,
      "맞추": 3676,
      "관객": 3677,
      "##os": 3678,
      "였으며": 3679,
      "휴가": 3680,
      "솔직": 3681,
      "자영": 3682,
      "공산당": 3683,
      "자문": 3684,
      "활약": 3685,
      "김영": 3686,
      "냐는": 3687,
      "입지": 3688,
      "편성": 3689,
      "교과": 3690,
      "오프라인": 3691,
      "출장": 3692,
      "끝나": 3693,
      "시범": 3694,
      "별로": 3695,
      "##로그": 3696,
      "세우": 3697,
      "롤": 3698,
      "타이어": 3699,
      "ᄀ": 3700,
      "아이폰": 3701,
      "스프": 3702,
      "던데": 3703,
      "치열": 3704,
      "적정": 3705,
      "SNS": 3706,
      "세포": 3707,
      "##준다": 3708,
      "물러": 3709,
      "초대": 3710,
      "캐나다": 3711,
      "국당": 3712,
      "매물": 3713,
      "생존": 3714,
      "원화": 3715,
      "미니": 3716,
      "들어갔": 3717,
      "출마": 3718,
      "엉": 3719,
      "유튜브": 3720,
      "격리": 3721,
      "시내": 3722,
      "St": 3723,
      "##나무": 3724,
      "이웃": 3725,
      "닫": 3726,
      "초청": 3727,
      "수십": 3728,
      "##CC": 3729,
      "의하": 3730,
      "91": 3731,
      "중동": 3732,
      "명확": 3733,
      "구만": 3734,
      "실무": 3735,
      "뛰어난": 3736,
      "버전": 3737,
      "훼": 3738,
      "해졌": 3739,
      "라이프": 3740,
      "농가": 3741,
      "실내": 3742,
      "심화": 3743,
      "건조": 3744,
      "상한": 3745,
      "기에": 3746,
      "##려야": 3747,
      "복귀": 3748,
      "조언": 3749,
      "한국은행": 3750,
      "ETF": 3751,
      "뭔가": 3752,
      "이스": 3753,
      "멀티": 3754,
      "썩": 3755,
      "출전": 3756,
      "파업": 3757,
      "j": 3758,
      "of": 3759,
      "계절": 3760,
      "ᄃ": 3761,
      "배제": 3762,
      "원하": 3763,
      "81": 3764,
      "쇼핑몰": 3765,
      "체크": 3766,
      "핸": 3767,
      "와이": 3768,
      "심지어": 3769,
      "챔": 3770,
      "어제": 3771,
      "##ter": 3772,
      "폐쇄": 3773,
      "자영업": 3774,
      "잇따": 3775,
      "2002": 3776,
      "녀": 3777,
      "배상": 3778,
      "즉시": 3779,
      "기술력": 3780,
      "여파": 3781,
      "화제": 3782,
      "왜구": 3783,
      "접종": 3784,
      "대행": 3785,
      "눈길": 3786,
      "모자": 3787,
      "공략": 3788,
      "낫": 3789,
      "중개": 3790,
      "진료": 3791,
      "요건": 3792,
      "부자": 3793,
      "줄어든": 3794,
      "##ir": 3795,
      "의결": 3796,
      "바랍니다": 3797,
      "도쿄": 3798,
      "청장": 3799,
      "논문": 3800,
      "지난주": 3801,
      "시선": 3802,
      "징역": 3803,
      "숫자": 3804,
      "소매": 3805,
      "인플레이션": 3806,
      "블루": 3807,
      "한심": 3808,
      "편입": 3809,
      "94": 3810,
      "##um": 3811,
      "살리": 3812,
      "대학생": 3813,
      "79": 3814,
      "##아먹": 3815,
      "당했": 3816,
      "대상자": 3817,
      "재건축": 3818,
      "지도자": 3819,
      "채택": 3820,
      "기재": 3821,
      "좁": 3822,
      "정하": 3823,
      "86": 3824,
      "분노": 3825,
      "97": 3826,
      "증가세": 3827,
      "중앙은행": 3828,
      "양산": 3829,
      "연휴": 3830,
      "혼란": 3831,
      "제휴": 3832,
      "in": 3833,
      "92": 3834,
      "특화": 3835,
      "모듈": 3836,
      "최대한": 3837,
      "수학": 3838,
      "83": 3839,
      "윤석": 3840,
      "락": 3841,
      "가맹점": 3842,
      "노무현": 3843,
      "발급": 3844,
      "공헌": 3845,
      "##DI": 3846,
      "주최": 3847,
      "##미터": 3848,
      "주소": 3849,
      "서버": 3850,
      "갱": 3851,
      "확률": 3852,
      "방해": 3853,
      "##려서": 3854,
      "##주시": 3855,
      "87": 3856,
      "편안": 3857,
      "젠": 3858,
      "##네시아": 3859,
      "연수": 3860,
      "협조": 3861,
      "어려워": 3862,
      "클라우드": 3863,
      "격차": 3864,
      "으므로": 3865,
      "토대": 3866,
      "메모리": 3867,
      "기독": 3868,
      "고도": 3869,
      "파리": 3870,
      "테러": 3871,
      "ᄇ": 3872,
      "金": 3873,
      "감염증": 3874,
      "목숨": 3875,
      "확충": 3876,
      "이명박": 3877,
      "##아지": 3878,
      "당한": 3879,
      "편의점": 3880,
      "교통부": 3881,
      "흥국": 3882,
      "스러": 3883,
      "창원": 3884,
      "기지": 3885,
      "찬성": 3886,
      "복잡": 3887,
      "96": 3888,
      "퇴직": 3889,
      "정식": 3890,
      "거대": 3891,
      "##ct": 3892,
      "그쳤": 3893,
      "스피": 3894,
      "스카": 3895,
      "메르": 3896,
      "발주": 3897,
      "감성": 3898,
      "올라가": 3899,
      "ᄋ": 3900,
      "그랬": 3901,
      "배럴": 3902,
      "집권": 3903,
      "노후": 3904,
      "##가락": 3905,
      "93": 3906,
      "합격": 3907,
      "중립": 3908,
      "데일리": 3909,
      "인도네시아": 3910,
      "룸": 3911,
      "성명": 3912,
      "침해": 3913,
      "증자": 3914,
      "눈치": 3915,
      "음료": 3916,
      "부당": 3917,
      "##로스": 3918,
      "내일": 3919,
      "거든요": 3920,
      "ᅲᅲ": 3921,
      "와인": 3922,
      "애니": 3923,
      "유효": 3924,
      "표정": 3925,
      "한진": 3926,
      "bp": 3927,
      "어울": 3928,
      "새벽": 3929,
      "간다": 3930,
      "나눔": 3931,
      "원료": 3932,
      "유엔": 3933,
      "서초": 3934,
      "청산": 3935,
      "하회": 3936,
      "아닙": 3937,
      "아쉬": 3938,
      "PB": 3939,
      "헬스": 3940,
      "조명": 3941,
      "넌": 3942,
      "##DA": 3943,
      "라서": 3944,
      "엄청난": 3945,
      "##관리": 3946,
      "구하": 3947,
      "소중": 3948,
      "tv": 3949,
      "구제": 3950,
      "헛": 3951,
      "쏠": 3952,
      "금호": 3953,
      "대답": 3954,
      "단속": 3955,
      "강원도": 3956,
      "일대": 3957,
      "증대": 3958,
      "구청": 3959,
      "제어": 3960,
      "평등": 3961,
      "해상": 3962,
      "천연": 3963,
      "집안": 3964,
      "<": 3965,
      "빠지": 3966,
      "나설": 3967,
      "그간": 3968,
      "박정": 3969,
      "무려": 3970,
      "입학": 3971,
      "타워": 3972,
      "플래": 3973,
      "재정부": 3974,
      "동료": 3975,
      "전라도": 3976,
      "융합": 3977,
      "##ce": 3978,
      "여의도": 3979,
      "개성": 3980,
      "국세": 3981,
      "샌": 3982,
      "왼": 3983,
      "사안": 3984,
      "브리": 3985,
      "천안": 3986,
      "충족": 3987,
      "부끄": 3988,
      "펼치": 3989,
      "그나마": 3990,
      "출판": 3991,
      "어떠": 3992,
      "선보인다": 3993,
      "라이브": 3994,
      "푸드": 3995,
      "PER": 3996,
      "89": 3997,
      "##머스": 3998,
      "09": 3999,
      "고서": 4000,
      "국산": 4001,
      "중기": 4002,
      "황교": 4003,
      "입법": 4004,
      "##폴리오": 4005,
      "포트폴리오": 4006,
      "알려져": 4007,
      "청문회": 4008,
      "##런스": 4009,
      "의류": 4010,
      "주사": 4011,
      "끈": 4012,
      "전공": 4013,
      "면접": 4014,
      "적어도": 4015,
      "250": 4016,
      "여유": 4017,
      "도서관": 4018,
      "명품": 4019,
      "정원": 4020,
      "기도": 4021,
      "LCD": 4022,
      "벌써": 4023,
      "자전": 4024,
      "영양": 4025,
      "떨어져": 4026,
      "투쟁": 4027,
      "무서": 4028,
      "전해졌": 4029,
      "가이드": 4030,
      "납부": 4031,
      "용기": 4032,
      "##테크": 4033,
      "밸류": 4034,
      "분할": 4035,
      "01": 4036,
      "03": 4037,
      "중도": 4038,
      "그저": 4039,
      "##고리": 4040,
      "월급": 4041,
      "묶": 4042,
      "적립": 4043,
      "##포르": 4044,
      "##다른": 4045,
      "증정": 4046,
      "옹": 4047,
      "알려진": 4048,
      "이성": 4049,
      "주당": 4050,
      "공포": 4051,
      "난리": 4052,
      "권고": 4053,
      "웃음": 4054,
      "문의": 4055,
      "##파이": 4056,
      "납품": 4057,
      "##IS": 4058,
      "용인": 4059,
      "연습": 4060,
      "아프리카": 4061,
      "스크": 4062,
      "발전소": 4063,
      "취하": 4064,
      "반성": 4065,
      "##Wh": 4066,
      "조심": 4067,
      "GM": 4068,
      "다녀": 4069,
      "훼손": 4070,
      "무상": 4071,
      "한미": 4072,
      "착용": 4073,
      "동맹": 4074,
      "##igh": 4075,
      "시너지": 4076,
      "기후": 4077,
      "못할": 4078,
      "지휘": 4079,
      "##도로": 4080,
      "최소한": 4081,
      "맞이": 4082,
      "섬유": 4083,
      "##우디": 4084,
      "##수수": 4085,
      "남부": 4086,
      "제주도": 4087,
      "둘째": 4088,
      "간편": 4089,
      "남녀": 4090,
      "발휘": 4091,
      "KBS": 4092,
      "공학": 4093,
      "중구": 4094,
      "포항": 4095,
      "출입": 4096,
      "##이즈": 4097,
      "골드": 4098,
      "선사": 4099,
      "당첨": 4100,
      "틱": 4101,
      "곳곳": 4102,
      "스트레스": 4103,
      "기독교": 4104,
      "광장": 4105,
      "이른바": 4106,
      "날씨": 4107,
      "다행": 4108,
      "사무실": 4109,
      "고개": 4110,
      "해진": 4111,
      "선전": 4112,
      "두드": 4113,
      "##가포르": 4114,
      "싱가포르": 4115,
      "민감": 4116,
      "차세대": 4117,
      "복수": 4118,
      "최신": 4119,
      "편집": 4120,
      "한마": 4121,
      "##bs": 4122,
      "한나라": 4123,
      "강도": 4124,
      "한나라당": 4125,
      "방사": 4126,
      "정밀": 4127,
      "아트": 4128,
      "멸": 4129,
      "사내": 4130,
      "국고": 4131,
      "콩": 4132,
      "꼼": 4133,
      "차질": 4134,
      "건립": 4135,
      "상용": 4136,
      "동생": 4137,
      "세미": 4138,
      "##oc": 4139,
      "통보": 4140,
      "경로": 4141,
      "양심": 4142,
      "떡": 4143,
      "올린": 4144,
      "가만": 4145,
      "##말로": 4146,
      "우리나라": 4147,
      "194": 4148,
      "높여": 4149,
      "느낄": 4150,
      "진심": 4151,
      "밴드": 4152,
      "공천": 4153,
      "##LED": 4154,
      "LED": 4155,
      "sk": 4156,
      "고유": 4157,
      "달창": 4158,
      "the": 4159,
      "애널리": 4160,
      "만난": 4161,
      "아빠": 4162,
      "센서스": 4163,
      "의문": 4164,
      "소수": 4165,
      "기온": 4166,
      "청원": 4167,
      "민원": 4168,
      "각국": 4169,
      "내외": 4170,
      "사회주의": 4171,
      "싸우": 4172,
      "표주": 4173,
      "신탁": 4174,
      "오리": 4175,
      "노하": 4176,
      "시트": 4177,
      "자꾸": 4178,
      "모터": 4179,
      "기상": 4180,
      "장난": 4181,
      "늘어날": 4182,
      "시공": 4183,
      "떠오": 4184,
      "##경원": 4185,
      "색상": 4186,
      "꽤": 4187,
      "위탁": 4188,
      "태국": 4189,
      "학과": 4190,
      "거론": 4191,
      "컵": 4192,
      "프레임": 4193,
      "소화": 4194,
      "무게": 4195,
      "진화": 4196,
      "저항": 4197,
      "캠프": 4198,
      "세워": 4199,
      "옳": 4200,
      "모색": 4201,
      "장학": 4202,
      "연봉": 4203,
      "195": 4204,
      "증설": 4205,
      "흡수": 4206,
      "산하": 4207,
      "공동체": 4208,
      "순수": 4209,
      "##라리": 4210,
      "출하": 4211,
      "접속": 4212,
      "미칠": 4213,
      "램": 4214,
      "출자": 4215,
      "정착": 4216,
      "허위": 4217,
      "땐": 4218,
      "신임": 4219,
      "두려": 4220,
      "애초": 4221,
      "초점": 4222,
      "900": 4223,
      "감축": 4224,
      "뚜렷": 4225,
      "생산량": 4226,
      "훌륭": 4227,
      "끄": 4228,
      "##체인": 4229,
      "공통": 4230,
      "이노": 4231,
      "시급": 4232,
      "김치": 4233,
      "밟": 4234,
      "MS": 4235,
      "홀딩": 4236,
      "연주": 4237,
      "봅": 4238,
      "라니": 4239,
      "로드": 4240,
      "작전": 4241,
      "소요": 4242,
      "자전거": 4243,
      "영향력": 4244,
      "인용": 4245,
      "서부": 4246,
      "개시": 4247,
      "웅": 4248,
      "선보였": 4249,
      "됐으며": 4250,
      "##뉴스": 4251,
      "지위": 4252,
      "모으": 4253,
      "유발": 4254,
      "대북": 4255,
      "##물관": 4256,
      "##다니": 4257,
      "페이지": 4258,
      "상처": 4259,
      "종사": 4260,
      "소녀": 4261,
      "이어졌": 4262,
      "놀이": 4263,
      "신선": 4264,
      "보낸": 4265,
      "돌리": 4266,
      "KOS": 4267,
      "극대": 4268,
      "중고": 4269,
      "강사": 4270,
      "주기": 4271,
      "모드": 4272,
      "그건": 4273,
      "##려고": 4274,
      "##단지": 4275,
      "신체": 4276,
      "##러리": 4277,
      "##ew": 4278,
      "매니": 4279,
      "피하": 4280,
      "개막": 4281,
      "겹": 4282,
      "상식": 4283,
      "어려울": 4284,
      "문제점": 4285,
      "한마디": 4286,
      "더블": 4287,
      "옮겨": 4288,
      "이루어지": 4289,
      "현안": 4290,
      "동남아": 4291,
      "연관": 4292,
      "도약": 4293,
      "부위": 4294,
      "그러면": 4295,
      "하드": 4296,
      "농촌": 4297,
      "박람": 4298,
      "입증": 4299,
      "성남": 4300,
      "고생": 4301,
      "당일": 4302,
      "유저": 4303,
      "고기": 4304,
      "개소": 4305,
      "명단": 4306,
      "애널리스트": 4307,
      "사모": 4308,
      "중반": 4309,
      "늘어났": 4310,
      "입력": 4311,
      "노하우": 4312,
      "호소": 4313,
      "유로존": 4314,
      "블록체인": 4315,
      "##서트": 4316,
      "정유": 4317,
      "버린": 4318,
      "운전자": 4319,
      "##ia": 4320,
      "부드": 4321,
      "##져야": 4322,
      "대장": 4323,
      "웰": 4324,
      "취재": 4325,
      "##화문": 4326,
      "보냈": 4327,
      "그러니까": 4328,
      "영원": 4329,
      "##RA": 4330,
      "최우": 4331,
      "워크": 4332,
      "신분": 4333,
      "파견": 4334,
      "누군가": 4335,
      "엇": 4336,
      "흉": 4337,
      "엑스": 4338,
      "보조금": 4339,
      "멕": 4340,
      "턴": 4341,
      "우한": 4342,
      "원자재": 4343,
      "개장": 4344,
      "냄새": 4345,
      "내다봤": 4346,
      "커뮤니티": 4347,
      "사원": 4348,
      "드라이": 4349,
      "당해": 4350,
      "치킨": 4351,
      "줄여": 4352,
      "보인": 4353,
      "낮추": 4354,
      "발매": 4355,
      "비례": 4356,
      "##제품": 4357,
      "수리": 4358,
      "Z": 4359,
      "##EC": 4360,
      "박물관": 4361,
      "시원": 4362,
      "만주": 4363,
      "홀딩스": 4364,
      "원리": 4365,
      "진흥": 4366,
      "동참": 4367,
      "돋": 4368,
      "스페": 4369,
      "lg": 4370,
      "장착": 4371,
      "백만": 4372,
      "오피스텔": 4373,
      "추경": 4374,
      "호흡": 4375,
      "선행": 4376,
      "리얼": 4377,
      "나경원": 4378,
      "명회": 4379,
      "##워서": 4380,
      "덩": 4381,
      "망하": 4382,
      "이라": 4383,
      "군인": 4384,
      "참가자": 4385,
      "저자": 4386,
      "전무": 4387,
      "한지": 4388,
      "랜드": 4389,
      "숙박": 4390,
      "개통": 4391,
      "##금리": 4392,
      "핫": 4393,
      "갈수록": 4394,
      "챔피": 4395,
      "##시오": 4396,
      "회사채": 4397,
      "대학원": 4398,
      "신라": 4399,
      "감독원": 4400,
      "공고": 4401,
      "##ip": 4402,
      "연동": 4403,
      "##데이": 4404,
      "##TV": 4405,
      "이민": 4406,
      "뭉": 4407,
      "녹색": 4408,
      "억제": 4409,
      "##버그": 4410,
      "다루": 4411,
      "유아": 4412,
      "톡": 4413,
      "2001": 4414,
      "칩": 4415,
      "EC": 4416,
      "공정위": 4417,
      "경영자": 4418,
      "닝": 4419,
      "닷컴": 4420,
      "웨이": 4421,
      "소상": 4422,
      "배정": 4423,
      "유치원": 4424,
      "결코": 4425,
      "탄력": 4426,
      "흘러": 4427,
      "##다수": 4428,
      "그려": 4429,
      "찾아가": 4430,
      "사라지": 4431,
      "대량": 4432,
      "유공": 4433,
      "몰려": 4434,
      "사단": 4435,
      "인류": 4436,
      "홈런": 4437,
      "02": 4438,
      "고향": 4439,
      "물품": 4440,
      "박람회": 4441,
      "만남": 4442,
      "180": 4443,
      "뮤지": 4444,
      "##소득": 4445,
      "kWh": 4446,
      "##리드": 4447,
      "조세": 4448,
      "전시회": 4449,
      "은퇴": 4450,
      "콘서트": 4451,
      "연초": 4452,
      "보스": 4453,
      "부작": 4454,
      "회전": 4455,
      "윤리": 4456,
      "전파": 4457,
      "세탁": 4458,
      "매달": 4459,
      "유상": 4460,
      "안심": 4461,
      "약화": 4462,
      "##라지": 4463,
      "출산": 4464,
      "발달": 4465,
      "식물": 4466,
      "국민은행": 4467,
      "규칙": 4468,
      "수처": 4469,
      "영웅": 4470,
      "매수세": 4471,
      "떠올": 4472,
      "최순": 4473,
      "장중": 4474,
      "어차": 4475,
      "학부모": 4476,
      "달했": 4477,
      "각자": 4478,
      "프라": 4479,
      "높였": 4480,
      "자면": 4481,
      "수시": 4482,
      "##으로": 4483,
      "던가": 4484,
      "강연": 4485,
      "어차피": 4486,
      "트위": 4487,
      "고시": 4488,
      "FO": 4489,
      "이사회": 4490,
      "##지니어": 4491,
      "##리케이션": 4492,
      "종가": 4493,
      "강점": 4494,
      "마법": 4495,
      "팝": 4496,
      "아기": 4497,
      "면제": 4498,
      "비디오": 4499,
      "사업장": 4500,
      "필리": 4501,
      "킬": 4502,
      "전장": 4503,
      "캐피": 4504,
      "들어서": 4505,
      "IS": 4506,
      "##est": 4507,
      "소환": 4508,
      "달러화": 4509,
      "빌딩": 4510,
      "실리": 4511,
      "화려": 4512,
      "도덕": 4513,
      "린": 4514,
      "한층": 4515,
      "랄": 4516,
      "시청자": 4517,
      "대거": 4518,
      "런던": 4519,
      "삭제": 4520,
      "중견": 4521,
      "준공": 4522,
      "지침": 4523,
      "지진": 4524,
      "의학": 4525,
      "용역": 4526,
      "거치": 4527,
      "어쩔": 4528,
      "##ab": 4529,
      "이걸": 4530,
      "차기": 4531,
      "청주": 4532,
      "극장": 4533,
      "##시코": 4534,
      "FTA": 4535,
      "몰아": 4536,
      "중점": 4537,
      "단가": 4538,
      "생겨": 4539,
      "셰": 4540,
      "수당": 4541,
      "투수": 4542,
      "##레인": 4543,
      "무너": 4544,
      "인제": 4545,
      "단장": 4546,
      "광화문": 4547,
      "체력": 4548,
      "양상": 4549,
      "}": 4550,
      "대법원": 4551,
      "한때": 4552,
      "스튜": 4553,
      "유학": 4554,
      "전후": 4555,
      "시상": 4556,
      "학회": 4557,
      "상임": 4558,
      "##스토": 4559,
      "폴리": 4560,
      "면역": 4561,
      "제국": 4562,
      "링크": 4563,
      "마이너스": 4564,
      "##회의": 4565,
      "사이버": 4566,
      "정작": 4567,
      "생물": 4568,
      "이승": 4569,
      "이리": 4570,
      "지내": 4571,
      "하여": 4572,
      "들어간": 4573,
      "합동": 4574,
      "특검": 4575,
      "스토어": 4576,
      "신중": 4577,
      "걸로": 4578,
      "신약": 4579,
      "승부": 4580,
      "타입": 4581,
      "기원": 4582,
      "넘어가": 4583,
      "##TI": 4584,
      "화성": 4585,
      "메인": 4586,
      "IMF": 4587,
      "느라": 4588,
      "원자력": 4589,
      "세무": 4590,
      "잖아요": 4591,
      "가해": 4592,
      "동결": 4593,
      "설득": 4594,
      "성폭": 4595,
      "반전": 4596,
      "달한다": 4597,
      "픽": 4598,
      "##ity": 4599,
      "아무런": 4600,
      "그거": 4601,
      "보복": 4602,
      "연설": 4603,
      "좋아": 4604,
      "여지": 4605,
      "해명": 4606,
      "호남": 4607,
      "드러나": 4608,
      "##에도": 4609,
      "설문": 4610,
      "결의": 4611,
      "황교안": 4612,
      "일환": 4613,
      "수록": 4614,
      "바람직": 4615,
      "승진": 4616,
      "연합회": 4617,
      "항공기": 4618,
      "단말": 4619,
      "철수": 4620,
      "오토": 4621,
      "적발": 4622,
      "단행": 4623,
      "잠정": 4624,
      "조항": 4625,
      "난다": 4626,
      "충돌": 4627,
      "작동": 4628,
      "앞장": 4629,
      "나간": 4630,
      "몰랐": 4631,
      "110": 4632,
      "여력": 4633,
      "형제": 4634,
      "매국": 4635,
      "안팎": 4636,
      "지향": 4637,
      "전제": 4638,
      "농산물": 4639,
      "혹시": 4640,
      "뒤집": 4641,
      "덴": 4642,
      "선제": 4643,
      "붕괴": 4644,
      "스케": 4645,
      "세미나": 4646,
      "ᅮ": 4647,
      "돌입": 4648,
      "착수": 4649,
      "케이블": 4650,
      "MBC": 4651,
      "일자": 4652,
      "드러내": 4653,
      "영장": 4654,
      "차리": 4655,
      "대가": 4656,
      "견인": 4657,
      "##뜨리": 4658,
      "##스티": 4659,
      "부가": 4660,
      "질서": 4661,
      "캡": 4662,
      "일각": 4663,
      "실망": 4664,
      "인치": 4665,
      "Ch": 4666,
      "건설사": 4667,
      "벌금": 4668,
      "밀리": 4669,
      "평창": 4670,
      "##지사": 4671,
      "첫째": 4672,
      "조만": 4673,
      "주위": 4674,
      "신사": 4675,
      "번역": 4676,
      "용산": 4677,
      "##PG": 4678,
      "회복세": 4679,
      "쿠폰": 4680,
      "경비": 4681,
      "찰": 4682,
      "차라리": 4683,
      "대한항공": 4684,
      "압도": 4685,
      "수능": 4686,
      "만화": 4687,
      "국방부": 4688,
      "바르": 4689,
      "교육부": 4690,
      "근처": 4691,
      "수영": 4692,
      "통장": 4693,
      "영입": 4694,
      "깊이": 4695,
      "커버": 4696,
      "경매": 4697,
      "유행": 4698,
      "세제": 4699,
      "05": 4700,
      "철회": 4701,
      "바보": 4702,
      "US": 4703,
      "내달": 4704,
      "선출": 4705,
      "대다수": 4706,
      "비하": 4707,
      "후속": 4708,
      "유공자": 4709,
      "행보": 4710,
      "##로지": 4711,
      "본질": 4712,
      "틈": 4713,
      "사형": 4714,
      "트위터": 4715,
      "멜": 4716,
      "트레이": 4717,
      "명절": 4718,
      "운항": 4719,
      "##ess": 4720,
      "수백": 4721,
      "원활": 4722,
      "파티": 4723,
      "랭": 4724,
      "삽": 4725,
      "시인": 4726,
      "전담": 4727,
      "친일파": 4728,
      "프랜": 4729,
      "##orm": 4730,
      "프라이": 4731,
      "끌어올": 4732,
      "마크": 4733,
      "항공사": 4734,
      "쫓": 4735,
      "스킬": 4736,
      "군수": 4737,
      "내내": 4738,
      "##메이션": 4739,
      "탱": 4740,
      "중순": 4741,
      "감각": 4742,
      "쇠": 4743,
      "거두": 4744,
      "##모션": 4745,
      "맛있": 4746,
      "간접": 4747,
      "택배": 4748,
      "분열": 4749,
      "굳이": 4750,
      "댄": 4751,
      "록": 4752,
      "연예인": 4753,
      "아무것": 4754,
      "오름": 4755,
      "암호": 4756,
      "책임자": 4757,
      "지닌": 4758,
      "챙기": 4759,
      "독점": 4760,
      "드립니다": 4761,
      "상품권": 4762,
      "선두": 4763,
      "##렉스": 4764,
      "조회": 4765,
      "고문": 4766,
      "이루어": 4767,
      "온갖": 4768,
      "리서": 4769,
      "##미널": 4770,
      "싹": 4771,
      "멕시코": 4772,
      "가중": 4773,
      "빠진": 4774,
      "##TE": 4775,
      "프로모션": 4776,
      "조만간": 4777,
      "산정": 4778,
      "조합원": 4779,
      "드러났": 4780,
      "일종": 4781,
      "중학교": 4782,
      "랜": 4783,
      "中": 4784,
      "겟": 4785,
      "모른다": 4786,
      "오바": 4787,
      "학자": 4788,
      "충청": 4789,
      "구상": 4790,
      "다섯": 4791,
      "가깝": 4792,
      "바리": 4793,
      "수신": 4794,
      "진술": 4795,
      "소외": 4796,
      "성장률": 4797,
      "##ver": 4798,
      "신입": 4799,
      "김포": 4800,
      "여객": 4801,
      "체인": 4802,
      "고교": 4803,
      "호재": 4804,
      "엘리": 4805,
      "동작": 4806,
      "구리": 4807,
      "변동성": 4808,
      "CD": 4809,
      "김종": 4810,
      "시나": 4811,
      "구요": 4812,
      "리서치": 4813,
      "부작용": 4814,
      "끝내": 4815,
      "가게": 4816,
      "보존": 4817,
      "간첩": 4818,
      "배포": 4819,
      "KOSPI": 4820,
      "뷰티": 4821,
      "태극": 4822,
      "##레이션": 4823,
      "인테": 4824,
      "당사자": 4825,
      "신한은행": 4826,
      "김성": 4827,
      "130": 4828,
      "##ight": 4829,
      "릴": 4830,
      "참조": 4831,
      "청사": 4832,
      "어른": 4833,
      "##해서": 4834,
      "부합": 4835,
      "파이낸": 4836,
      "섞": 4837,
      "불매": 4838,
      "FOMC": 4839,
      "청정": 4840,
      "서명": 4841,
      "화이트": 4842,
      "리조": 4843,
      "ᄅ": 4844,
      "허리": 4845,
      "짝": 4846,
      "레기": 4847,
      "열린다": 4848,
      "카지": 4849,
      "호기": 4850,
      "에겐": 4851,
      "포털": 4852,
      "테일": 4853,
      "아카": 4854,
      "아니면": 4855,
      "오브": 4856,
      "단축": 4857,
      "타운": 4858,
      "받아들이": 4859,
      "경신": 4860,
      "지나치": 4861,
      "맑": 4862,
      "센트": 4863,
      "상대방": 4864,
      "소위": 4865,
      "시정": 4866,
      "사망자": 4867,
      "유연": 4868,
      "포스": 4869,
      "##은이": 4870,
      "쌍용": 4871,
      "08": 4872,
      "간부": 4873,
      "여신": 4874,
      "끝난": 4875,
      "1990": 4876,
      "연내": 4877,
      "부활": 4878,
      "NA": 4879,
      "좌우": 4880,
      "##LS": 4881,
      "합성": 4882,
      "석탄": 4883,
      "아닙니다": 4884,
      "##마스": 4885,
      "흥미": 4886,
      "열정": 4887,
      "{": 4888,
      "였으나": 4889,
      "유력": 4890,
      "도달": 4891,
      "개척": 4892,
      "치매": 4893,
      "##철수": 4894,
      "이스라": 4895,
      "적당": 4896,
      "경주": 4897,
      "연합뉴스": 4898,
      "일으키": 4899,
      "립": 4900,
      "大": 4901,
      "강남구": 4902,
      "터미널": 4903,
      "서구": 4904,
      "라디오": 4905,
      "행정부": 4906,
      "앞둔": 4907,
      "살아가": 4908,
      "지능": 4909,
      "##르트": 4910,
      "사드": 4911,
      "용량": 4912,
      "창의": 4913,
      "건너": 4914,
      "패스": 4915,
      "그럼에도": 4916,
      "일원": 4917,
      "심장": 4918,
      "는다면": 4919,
      "시켜야": 4920,
      "긴축": 4921,
      "분산": 4922,
      "##og": 4923,
      "개봉": 4924,
      "1500": 4925,
      "주류": 4926,
      "하위": 4927,
      "지대": 4928,
      "득점": 4929,
      "양식": 4930,
      "인테리어": 4931,
      "##교육": 4932,
      "다운로드": 4933,
      "악재": 4934,
      "주자": 4935,
      "생성": 4936,
      "담긴": 4937,
      "공산주의": 4938,
      "유망": 4939,
      "들이": 4940,
      "외치": 4941,
      "종전": 4942,
      "이스라엘": 4943,
      "관찰": 4944,
      "해질": 4945,
      "##러지": 4946,
      "소년": 4947,
      "진영": 4948,
      "구단": 4949,
      "입점": 4950,
      "LNG": 4951,
      "도구": 4952,
      "수비": 4953,
      "벌어": 4954,
      "마르": 4955,
      "도망": 4956,
      "여서": 4957,
      "끊임": 4958,
      "프로세": 4959,
      "스티": 4960,
      "포스트": 4961,
      "OLED": 4962,
      "동해": 4963,
      "세이": 4964,
      "왼쪽": 4965,
      "##사고": 4966,
      "편지": 4967,
      "그램": 4968,
      "에게서": 4969,
      "리조트": 4970,
      "맥스": 4971,
      "장악": 4972,
      "붉": 4973,
      "마사": 4974,
      "##데이트": 4975,
      "카지노": 4976,
      "춤": 4977,
      "업데이트": 4978,
      "윤석열": 4979,
      "양도": 4980,
      "OE": 4981,
      "김대": 4982,
      "태평": 4983,
      "감동": 4984,
      "용도": 4985,
      "중계": 4986,
      "과잉": 4987,
      "유전자": 4988,
      "드림": 4989,
      "애국": 4990,
      "어깨": 4991,
      "추적": 4992,
      "나선다": 4993,
      "돌아오": 4994,
      "##친다": 4995,
      "변하": 4996,
      "##up": 4997,
      "필리핀": 4998,
      "쉬운": 4999,
      "아냐": 5000,
      "계정": 5001,
      "신장": 5002,
      "美": 5003,
      "한은": 5004,
      "임대료": 5005,
      "재벌": 5006,
      "자라": 5007,
      "갖춰": 5008,
      "##머리": 5009,
      "사물": 5010,
      "뼈": 5011,
      "##메달": 5012,
      "꿀": 5013,
      "무장": 5014,
      "포지": 5015,
      "의뢰": 5016,
      "샘": 5017,
      "시계": 5018,
      "뚫": 5019,
      "지명": 5020,
      "폭행": 5021,
      "한글": 5022,
      "모니터링": 5023,
      "팽": 5024,
      "멀리": 5025,
      "한전": 5026,
      "나스": 5027,
      "명칭": 5028,
      "경선": 5029,
      "##oy": 5030,
      "너무나": 5031,
      "MO": 5032,
      "재판부": 5033,
      "##그레이드": 5034,
      "업그레이드": 5035,
      "심하": 5036,
      "왜곡": 5037,
      "출력": 5038,
      "더러운": 5039,
      "지니": 5040,
      "걸어": 5041,
      "과일": 5042,
      "무식": 5043,
      "옛날": 5044,
      "산업단지": 5045,
      "06": 5046,
      "평택": 5047,
      "착공": 5048,
      "CC": 5049,
      "환영": 5050,
      "완공": 5051,
      "##디션": 5052,
      "사무소": 5053,
      "즉각": 5054,
      "축하": 5055,
      "주재": 5056,
      "##art": 5057,
      "챔피언": 5058,
      "확신": 5059,
      "##다보": 5060,
      "이념": 5061,
      "전사": 5062,
      "배려": 5063,
      "플라": 5064,
      "구성원": 5065,
      "재미있": 5066,
      "유시": 5067,
      "로스": 5068,
      "재배": 5069,
      "##대문": 5070,
      "이뤄졌": 5071,
      "상속": 5072,
      "LH": 5073,
      "존중": 5074,
      "냉장": 5075,
      "올바": 5076,
      "##물산": 5077,
      "몰라": 5078,
      "마스터": 5079,
      "플랜트": 5080,
      "종로": 5081,
      "다우": 5082,
      "쪼": 5083,
      "뜯": 5084,
      "전방": 5085,
      "삼성물산": 5086,
      "샵": 5087,
      "대결": 5088,
      "학기": 5089,
      "나름": 5090,
      "북부": 5091,
      "##ob": 5092,
      "차입": 5093,
      "추첨": 5094,
      "객관": 5095,
      "프랜차": 5096,
      "##트리": 5097,
      "##ive": 5098,
      "04": 5099,
      "주차장": 5100,
      "추출": 5101,
      "실태": 5102,
      "벼": 5103,
      "자발": 5104,
      "프랜차이즈": 5105,
      "일방": 5106,
      "만났": 5107,
      "비록": 5108,
      "소스": 5109,
      "꺾": 5110,
      "##마자": 5111,
      "재원": 5112,
      "팅": 5113,
      "조선일보": 5114,
      "케이스": 5115,
      "##센트": 5116,
      "비싸": 5117,
      "반등": 5118,
      "제보": 5119,
      "프린": 5120,
      "쾌적": 5121,
      "부패": 5122,
      "독특": 5123,
      "우대": 5124,
      "일관": 5125,
      "민생": 5126,
      "사우디": 5127,
      "캔": 5128,
      "박정희": 5129,
      "미소": 5130,
      "학술": 5131,
      "정의당": 5132,
      "쉐": 5133,
      "위안부": 5134,
      "그곳": 5135,
      "무한": 5136,
      "둘러싼": 5137,
      "베이징": 5138,
      "뜨거운": 5139,
      "위성": 5140,
      "표면": 5141,
      "##임금": 5142,
      "고대": 5143,
      "##생활": 5144,
      "##퍼런스": 5145,
      "국세청": 5146,
      "입사": 5147,
      "SM": 5148,
      "읍": 5149,
      "불쌍": 5150,
      "플레이어": 5151,
      "##릭스": 5152,
      "벌어지": 5153,
      "##들이": 5154,
      "##퍼스": 5155,
      "편하": 5156,
      "최상": 5157,
      "반박": 5158,
      "매주": 5159,
      "핸드": 5160,
      "튼": 5161,
      "감옥": 5162,
      "지켜보": 5163,
      "열렸": 5164,
      "먼지": 5165,
      "복구": 5166,
      "언제나": 5167,
      "안철수": 5168,
      "되돌": 5169,
      "조각": 5170,
      "입원": 5171,
      "일치": 5172,
      "##코인": 5173,
      "터키": 5174,
      "거점": 5175,
      "산출": 5176,
      "저소득": 5177,
      "##bc": 5178,
      "약관": 5179,
      "지인": 5180,
      "합작": 5181,
      "여수": 5182,
      "마침": 5183,
      "##TS": 5184,
      "이정": 5185,
      "펴": 5186,
      "평양": 5187,
      "AS": 5188,
      "브리핑": 5189,
      "늘려": 5190,
      "알아보": 5191,
      "오바마": 5192,
      "스위스": 5193,
      "엔지니어": 5194,
      "##PC": 5195,
      "커머스": 5196,
      "아메": 5197,
      "따지": 5198,
      "비트코인": 5199,
      "범죄자": 5200,
      "나타날": 5201,
      "담당자": 5202,
      "경영진": 5203,
      "전역": 5204,
      "플라스": 5205,
      "용어": 5206,
      "태풍": 5207,
      "시나리오": 5208,
      "이혼": 5209,
      "제로": 5210,
      "전송": 5211,
      "아우": 5212,
      "젤": 5213,
      "리스트": 5214,
      "궤": 5215,
      "봅니다": 5216,
      "지지자": 5217,
      "사로": 5218,
      "그치": 5219,
      "선배": 5220,
      "소득세": 5221,
      "행진": 5222,
      "2030": 5223,
      "대해선": 5224,
      "중소형": 5225,
      "갚": 5226,
      "##마크": 5227,
      "촌": 5228,
      "패배": 5229,
      "딴": 5230,
      "마친": 5231,
      "뮤직": 5232,
      "사업비": 5233,
      "늙": 5234,
      "굿": 5235,
      "회관": 5236,
      "HD": 5237,
      "수령": 5238,
      "##베이": 5239,
      "비싼": 5240,
      "포르": 5241,
      "머니": 5242,
      "피아": 5243,
      "지불": 5244,
      "CA": 5245,
      "몰리": 5246,
      "새해": 5247,
      "휴식": 5248,
      "인건": 5249,
      "나쁘": 5250,
      "쳐먹": 5251,
      "##ine": 5252,
      "일반인": 5253,
      "장식": 5254,
      "가파": 5255,
      "낚": 5256,
      "저점": 5257,
      "걸려": 5258,
      "193": 5259,
      "블로그": 5260,
      "남기": 5261,
      "연맹": 5262,
      "미쳤": 5263,
      "징계": 5264,
      "만날": 5265,
      "연평균": 5266,
      "롱": 5267,
      "감면": 5268,
      "나타난": 5269,
      "결승": 5270,
      "스튜디오": 5271,
      "앵": 5272,
      "부리": 5273,
      "분당": 5274,
      "해체": 5275,
      "가질": 5276,
      "과목": 5277,
      "견조": 5278,
      "손상": 5279,
      "이렇": 5280,
      "반일": 5281,
      "자제": 5282,
      "증진": 5283,
      "신화": 5284,
      "위상": 5285,
      "애니메이션": 5286,
      "부재": 5287,
      "월세": 5288,
      "The": 5289,
      "합류": 5290,
      "열차": 5291,
      "구도": 5292,
      "이닝": 5293,
      "똑같이": 5294,
      "상인": 5295,
      "유시민": 5296,
      "어치": 5297,
      "도내": 5298,
      "유해": 5299,
      "조화": 5300,
      "억울": 5301,
      "그래프": 5302,
      "고지": 5303,
      "공익": 5304,
      "한가": 5305,
      "에서부터": 5306,
      "이럴": 5307,
      "퓨": 5308,
      "번지": 5309,
      "차트": 5310,
      "체포": 5311,
      "나갔": 5312,
      "송파": 5313,
      "외형": 5314,
      "나노": 5315,
      "##if": 5316,
      "윌": 5317,
      "습관": 5318,
      "자아": 5319,
      "다를": 5320,
      "탈출": 5321,
      "좃": 5322,
      "마당": 5323,
      "에다": 5324,
      "##ard": 5325,
      "예외": 5326,
      "190": 5327,
      "산림": 5328,
      "사령": 5329,
      "타당": 5330,
      "퀴": 5331,
      "##NA": 5332,
      "오늘날": 5333,
      "##받침": 5334,
      "클래스": 5335,
      "파생": 5336,
      "동월": 5337,
      "흥행": 5338,
      "창립": 5339,
      "##다리": 5340,
      "세일": 5341,
      "기생": 5342,
      "자마자": 5343,
      "콜라": 5344,
      "딩": 5345,
      "유용": 5346,
      "##TX": 5347,
      "근접": 5348,
      "연극": 5349,
      "##ug": 5350,
      "복원": 5351,
      "폐렴": 5352,
      "조례": 5353,
      "체육관": 5354,
      "인건비": 5355,
      "둥": 5356,
      "초래": 5357,
      "실정": 5358,
      "될지": 5359,
      "높일": 5360,
      "역전": 5361,
      "걸음": 5362,
      "적응": 5363,
      "비정": 5364,
      "최저임금": 5365,
      "우호": 5366,
      "위생": 5367,
      "출석": 5368,
      "터치": 5369,
      "로마": 5370,
      "놔": 5371,
      "대체로": 5372,
      "쓰이": 5373,
      "커졌": 5374,
      "충당": 5375,
      "오버": 5376,
      "엄격": 5377,
      "견해": 5378,
      "ESG": 5379,
      "발효": 5380,
      "콤": 5381,
      "##소시": 5382,
      "##드로": 5383,
      "##ell": 5384,
      "타자": 5385,
      "교실": 5386,
      "##핵화": 5387,
      "##총장": 5388,
      "살려": 5389,
      "비핵화": 5390,
      "넘겨": 5391,
      "장학금": 5392,
      "을까요": 5393,
      "멍청": 5394,
      "경찰서": 5395,
      "지랄": 5396,
      "Re": 5397,
      "##ate": 5398,
      "외식": 5399,
      "리스": 5400,
      "조리": 5401,
      "스코": 5402,
      "럭": 5403,
      "겨우": 5404,
      "##스탄": 5405,
      "벅": 5406,
      "보증금": 5407,
      "행장": 5408,
      "라인업": 5409,
      "창작": 5410,
      "모았": 5411,
      "추락": 5412,
      "으려고": 5413,
      "##어리": 5414,
      "##바이": 5415,
      "아닌데": 5416,
      "명시": 5417,
      "대대": 5418,
      "플라스틱": 5419,
      "장르": 5420,
      "가끔": 5421,
      "어야지": 5422,
      "숭": 5423,
      "cm": 5424,
      "보전": 5425,
      "##권자": 5426,
      "원금": 5427,
      "기름": 5428,
      "타이틀": 5429,
      "트랙": 5430,
      "뇌물": 5431,
      "저렇게": 5432,
      "걸린": 5433,
      "톱": 5434,
      "캘": 5435,
      "##IC": 5436,
      "변신": 5437,
      "고점": 5438,
      "아닐까": 5439,
      "소문": 5440,
      "마주": 5441,
      "정서": 5442,
      "##시장": 5443,
      "뒷받침": 5444,
      "젖": 5445,
      "이주": 5446,
      "싱글": 5447,
      "막대": 5448,
      "황금": 5449,
      "마약": 5450,
      "ECB": 5451,
      "유가증권": 5452,
      "지나가": 5453,
      "느낀": 5454,
      "합시다": 5455,
      "신상": 5456,
      "##ers": 5457,
      "토론회": 5458,
      "곧바로": 5459,
      "공중": 5460,
      "종북": 5461,
      "싼": 5462,
      "내역": 5463,
      "1980": 5464,
      "낙폭": 5465,
      "엿": 5466,
      "등등": 5467,
      "일찍": 5468,
      "당당": 5469,
      "운명": 5470,
      "꺼내": 5471,
      "반려": 5472,
      "메이저": 5473,
      "정은": 5474,
      "##th": 5475,
      "람": 5476,
      "경쟁사": 5477,
      "인접": 5478,
      "비행기": 5479,
      "정통": 5480,
      "##러진": 5481,
      "무관": 5482,
      "환경부": 5483,
      "##RS": 5484,
      "넘치": 5485,
      "이슬": 5486,
      "터지": 5487,
      "유의": 5488,
      "축산": 5489,
      "연도": 5490,
      "##의자": 5491,
      "악마": 5492,
      "140": 5493,
      "든다": 5494,
      "선별": 5495,
      "농민": 5496,
      "신축": 5497,
      "후기": 5498,
      "오류": 5499,
      "입시": 5500,
      "애플리케이션": 5501,
      "수렴": 5502,
      "보험금": 5503,
      "일어난": 5504,
      "경기장": 5505,
      "널": 5506,
      "감지": 5507,
      "손잡": 5508,
      "상권": 5509,
      "코어": 5510,
      "십시오": 5511,
      "문화재": 5512,
      "버려": 5513,
      "협박": 5514,
      "급감": 5515,
      "협동": 5516,
      "##ex": 5517,
      "급속": 5518,
      "페미": 5519,
      "셔서": 5520,
      "해수": 5521,
      "RO": 5522,
      "문죄": 5523,
      "극단": 5524,
      "공기업": 5525,
      "kg": 5526,
      "김경": 5527,
      "널리": 5528,
      "방위": 5529,
      "신차": 5530,
      "##둥이": 5531,
      "소지": 5532,
      "공작": 5533,
      "닮": 5534,
      "kt": 5535,
      "커질": 5536,
      "오랫": 5537,
      "캠퍼스": 5538,
      "답답": 5539,
      "07": 5540,
      "미안": 5541,
      "수산": 5542,
      "경찰청": 5543,
      "국적": 5544,
      "드래": 5545,
      "크림": 5546,
      "매니저": 5547,
      "잇따라": 5548,
      "##ak": 5549,
      "워싱": 5550,
      "장군": 5551,
      "칭찬": 5552,
      "갤러리": 5553,
      "개소리": 5554,
      "재계": 5555,
      "##로운": 5556,
      "단말기": 5557,
      "노리": 5558,
      "흥원": 5559,
      "겉": 5560,
      "뻔뻔": 5561,
      "해군": 5562,
      "주석": 5563,
      "##연합": 5564,
      "거절": 5565,
      "192": 5566,
      "겨냥": 5567,
      "폭탄": 5568,
      "들려": 5569,
      "황제": 5570,
      "원대": 5571,
      "상실": 5572,
      "챙겨": 5573,
      "면허": 5574,
      "용지": 5575,
      "BM": 5576,
      "즐거": 5577,
      "SU": 5578,
      "교과서": 5579,
      "##운용": 5580,
      "##ang": 5581,
      "비정규": 5582,
      "잔액": 5583,
      "봇": 5584,
      "간호": 5585,
      "우유": 5586,
      "스카이": 5587,
      "아마존": 5588,
      "민심": 5589,
      "Qo": 5590,
      "뮤지컬": 5591,
      "부도": 5592,
      "총액": 5593,
      "테이블": 5594,
      "헤드": 5595,
      "법령": 5596,
      "특유": 5597,
      "비정규직": 5598,
      "예능": 5599,
      "평범": 5600,
      "워낙": 5601,
      "우파": 5602,
      "종사자": 5603,
      "리더십": 5604,
      "##테이너": 5605,
      "여겨": 5606,
      "원천": 5607,
      "크루": 5608,
      "세웠": 5609,
      "주방": 5610,
      "한번": 5611,
      "남불": 5612,
      "치솟": 5613,
      "오를": 5614,
      "성실": 5615,
      "함유": 5616,
      "포지션": 5617,
      "조지": 5618,
      "PBR": 5619,
      "선보인": 5620,
      "음주": 5621,
      "##트롤": 5622,
      "블룸": 5623,
      "##ist": 5624,
      "가방": 5625,
      "태극기": 5626,
      "상당수": 5627,
      "나스닥": 5628,
      "사인": 5629,
      "SBS": 5630,
      "##파크": 5631,
      "밀려": 5632,
      "전선": 5633,
      "1999": 5634,
      "넘어섰": 5635,
      "조선족": 5636,
      "춘천": 5637,
      "신흥": 5638,
      "창고": 5639,
      "익숙": 5640,
      "대국": 5641,
      "시진": 5642,
      "격려": 5643,
      "게이": 5644,
      "탑승": 5645,
      "앞세": 5646,
      "##베이션": 5647,
      "유닛": 5648,
      "자산운용": 5649,
      "내지": 5650,
      "지리": 5651,
      "1997": 5652,
      "점진": 5653,
      "##문화": 5654,
      "등락": 5655,
      "##아버지": 5656,
      "전액": 5657,
      "증여": 5658,
      "##하면": 5659,
      "정성": 5660,
      "QoQ": 5661,
      "이노베이션": 5662,
      "EPS": 5663,
      "상자": 5664,
      "무죄": 5665,
      "SS": 5666,
      "맞서": 5667,
      "강릉": 5668,
      "공업": 5669,
      "어르": 5670,
      "위대": 5671,
      "오직": 5672,
      "가난": 5673,
      "넘기": 5674,
      "연체": 5675,
      "추억": 5676,
      "표창": 5677,
      "##워드": 5678,
      "##수수색": 5679,
      "교육감": 5680,
      "압수수색": 5681,
      "심한": 5682,
      "모빌": 5683,
      "비타": 5684,
      "돋보": 5685,
      "무릎": 5686,
      "워싱턴": 5687,
      "고전": 5688,
      "향한": 5689,
      "소모": 5690,
      "이뤄질": 5691,
      "컨테이너": 5692,
      "농장": 5693,
      "##ore": 5694,
      "박원": 5695,
      "근대": 5696,
      "오랫동안": 5697,
      "合": 5698,
      "추산": 5699,
      "출근": 5700,
      "미터": 5701,
      "항만": 5702,
      "대립": 5703,
      "다름": 5704,
      "누릴": 5705,
      "소음": 5706,
      "흰": 5707,
      "표명": 5708,
      "흐르": 5709,
      "파라": 5710,
      "관행": 5711,
      "사로잡": 5712,
      "##MI": 5713,
      "데리": 5714,
      "실물": 5715,
      "진로": 5716,
      "과감": 5717,
      "택지": 5718,
      "이라크": 5719,
      "신재": 5720,
      "기저": 5721,
      "st": 5722,
      "김현": 5723,
      "지도부": 5724,
      "회피": 5725,
      "CO": 5726,
      "순서": 5727,
      "외화": 5728,
      "군요": 5729,
      "내놨": 5730,
      "몇몇": 5731,
      "김해": 5732,
      "1998": 5733,
      "하이브": 5734,
      "도민": 5735,
      "사후": 5736,
      "떠오르": 5737,
      "키트": 5738,
      "상사": 5739,
      "태평양": 5740,
      "왜냐": 5741,
      "오른쪽": 5742,
      "라이트": 5743,
      "한강": 5744,
      "##슬라": 5745,
      "노예": 5746,
      "노동부": 5747,
      "닛": 5748,
      "띠": 5749,
      "독서": 5750,
      "존경": 5751,
      "##트로": 5752,
      "넘어서": 5753,
      "##멘트": 5754,
      "김동": 5755,
      "파운드": 5756,
      "어린이집": 5757,
      "메르스": 5758,
      "타인": 5759,
      "유산": 5760,
      "고가": 5761,
      "불교": 5762,
      "진상": 5763,
      "짱깨": 5764,
      "임무": 5765,
      "패러": 5766,
      "믹스": 5767,
      "임신": 5768,
      "섭취": 5769,
      "160": 5770,
      "충실": 5771,
      "문구": 5772,
      "정규직": 5773,
      "빼앗": 5774,
      "불거": 5775,
      "커뮤니케이션": 5776,
      "들어갈": 5777,
      "그라": 5778,
      "드론": 5779,
      "고리": 5780,
      "##TO": 5781,
      "이득": 5782,
      "파이낸셜": 5783,
      "오름세": 5784,
      "코너": 5785,
      "스크린": 5786,
      "시진핑": 5787,
      "선보일": 5788,
      "재해": 5789,
      "데려": 5790,
      "고수": 5791,
      "안타깝": 5792,
      "어울리": 5793,
      "사이클": 5794,
      "시그": 5795,
      "OP": 5796,
      "손가락": 5797,
      "은행장": 5798,
      "업자": 5799,
      "오해": 5800,
      "의료진": 5801,
      "곁": 5802,
      "김태": 5803,
      "깨문": 5804,
      "룩": 5805,
      "디자이너": 5806,
      "추이": 5807,
      "##널드": 5808,
      "침대": 5809,
      "구청장": 5810,
      "101": 5811,
      "필름": 5812,
      "해고": 5813,
      "길이": 5814,
      "비자": 5815,
      "##IA": 5816,
      "##어났": 5817,
      "양자": 5818,
      "##피아": 5819,
      "규명": 5820,
      "홀로": 5821,
      "어르신": 5822,
      "일본인": 5823,
      "매월": 5824,
      "전염": 5825,
      "캐피탈": 5826,
      "원주": 5827,
      "##셉트": 5828,
      "으시": 5829,
      "수천": 5830,
      "안건": 5831,
      "고조": 5832,
      "쉴": 5833,
      "##ra": 5834,
      "올바른": 5835,
      "와중": 5836,
      "##디아": 5837,
      "공직자": 5838,
      "묘사": 5839,
      "통증": 5840,
      "강요": 5841,
      "수송": 5842,
      "공지": 5843,
      "저하": 5844,
      "re": 5845,
      "부천": 5846,
      "서비스업": 5847,
      "필터": 5848,
      "에어컨": 5849,
      "##바닥": 5850,
      "횟": 5851,
      "기법": 5852,
      "##이크": 5853,
      "##ov": 5854,
      "남겨": 5855,
      "빠졌": 5856,
      "AP": 5857,
      "##낸다": 5858,
      "##아리": 5859,
      "주한": 5860,
      "곽": 5861,
      "일가": 5862,
      "될까": 5863,
      "쿼": 5864,
      "걸렸": 5865,
      "교섭": 5866,
      "블룸버그": 5867,
      "모른": 5868,
      "덤": 5869,
      "전라": 5870,
      "쥬": 5871,
      "##스토랑": 5872,
      "레스토랑": 5873,
      "유료": 5874,
      "호응": 5875,
      "##셔널": 5876,
      "산업은행": 5877,
      "영혼": 5878,
      "병행": 5879,
      "섹터": 5880,
      "옹호": 5881,
      "주유": 5882,
      "플랫폼": 5883,
      "때려": 5884,
      "스웨": 5885,
      "다각": 5886,
      "##져서": 5887,
      "서해": 5888,
      "버튼": 5889,
      "무인": 5890,
      "무섭": 5891,
      "아티": 5892,
      "가볍": 5893,
      "급식": 5894,
      "턱": 5895,
      "기한": 5896,
      "##지수": 5897,
      "스키": 5898,
      "승객": 5899,
      "구미": 5900,
      "닿": 5901,
      "승용": 5902,
      "국무총리": 5903,
      "##ub": 5904,
      "##all": 5905,
      "토록": 5906,
      "피고": 5907,
      "삼성증권": 5908,
      "줄일": 5909,
      "실리콘": 5910,
      "견제": 5911,
      "불안감": 5912,
      "맵": 5913,
      "경유": 5914,
      "부스": 5915,
      "PE": 5916,
      "191": 5917,
      "허브": 5918,
      "##아치": 5919,
      "##CI": 5920,
      "천지": 5921,
      "게이트": 5922,
      "남양": 5923,
      "2023": 5924,
      "##스티벌": 5925,
      "페스티벌": 5926,
      "합쳐": 5927,
      "임차": 5928,
      "차장": 5929,
      "표기": 5930,
      "화장실": 5931,
      "양사": 5932,
      "보육": 5933,
      "##ue": 5934,
      "깜짝": 5935,
      "그날": 5936,
      "휠": 5937,
      "##소시엄": 5938,
      "컨소시엄": 5939,
      "혼합": 5940,
      "이수": 5941,
      "도중": 5942,
      "공화국": 5943,
      "유전": 5944,
      "축적": 5945,
      "신발": 5946,
      "메리": 5947,
      "114": 5948,
      "##바지": 5949,
      "##IT": 5950,
      "폐기물": 5951,
      "인성": 5952,
      "과열": 5953,
      "지경": 5954,
      "CS": 5955,
      "빌려": 5956,
      "보여준다": 5957,
      "니다": 5958,
      "##산시": 5959,
      "근육": 5960,
      "유예": 5961,
      "헤어": 5962,
      "접목": 5963,
      "명의": 5964,
      "##MA": 5965,
      "총수": 5966,
      "나와서": 5967,
      "세운": 5968,
      "쿨": 5969,
      "양측": 5970,
      "화력": 5971,
      "고인": 5972,
      "버티": 5973,
      "쏟아": 5974,
      "컨트롤": 5975,
      "해방": 5976,
      "국경": 5977,
      "이뤄진": 5978,
      "체감": 5979,
      "헤지": 5980,
      "쇄": 5981,
      "마땅": 5982,
      "예배": 5983,
      "##PA": 5984,
      "곰": 5985,
      "가사": 5986,
      "멈추": 5987,
      "자존": 5988,
      "처먹": 5989,
      "코트": 5990,
      "멋진": 5991,
      "붙여": 5992,
      "화이": 5993,
      "요원": 5994,
      "며칠": 5995,
      "리모": 5996,
      "시달": 5997,
      "부산시": 5998,
      "력사": 5999,
      "공주": 6000,
      "##ort": 6001,
      "더군": 6002,
      "배분": 6003,
      "상금": 6004,
      "통계청": 6005,
      "강경": 6006,
      "자이": 6007,
      "요양": 6008,
      "조종": 6009,
      "낙찰": 6010,
      "클린": 6011,
      "내정": 6012,
      "육아": 6013,
      "게재": 6014,
      "사냥": 6015,
      "##개발": 6016,
      "명분": 6017,
      "상해": 6018,
      "수여": 6019,
      "식민": 6020,
      "메가": 6021,
      "동북": 6022,
      "만만": 6023,
      "직장인": 6024,
      "트럭": 6025,
      "농림": 6026,
      "시상식": 6027,
      "기인": 6028,
      "이겨": 6029,
      "책정": 6030,
      "느꼈": 6031,
      "##아내": 6032,
      "믿음": 6033,
      "누르": 6034,
      "위로": 6035,
      "FC": 6036,
      "보합": 6037,
      "우크": 6038,
      "클릭": 6039,
      "다스": 6040,
      "영광": 6041,
      "제네": 6042,
      "올릴": 6043,
      "발간": 6044,
      "교역": 6045,
      "이끄": 6046,
      "ICT": 6047,
      "메디": 6048,
      "호전": 6049,
      "단점": 6050,
      "350": 6051,
      "부적": 6052,
      "짓거리": 6053,
      "MB": 6054,
      "모기": 6055,
      "행태": 6056,
      "고양이": 6057,
      "약정": 6058,
      "법인세": 6059,
      "풍경": 6060,
      "사이즈": 6061,
      "##운동": 6062,
      "클래식": 6063,
      "활력": 6064,
      "수요자": 6065,
      "핀테크": 6066,
      "끊임없이": 6067,
      "몫": 6068,
      "점심": 6069,
      "어리": 6070,
      "가벼": 6071,
      "맨날": 6072,
      "보임": 6073,
      "권위": 6074,
      "시행령": 6075,
      "태어나": 6076,
      "계시": 6077,
      "구독": 6078,
      "저러": 6079,
      "야외": 6080,
      "고무": 6081,
      "베이스": 6082,
      "지부": 6083,
      "앞장서": 6084,
      "다가오": 6085,
      "드릴": 6086,
      "특혜": 6087,
      "MOU": 6088,
      "에코": 6089,
      "비타민": 6090,
      "접근성": 6091,
      "거품": 6092,
      "바뀐": 6093,
      "백성": 6094,
      "준수": 6095,
      "보편": 6096,
      "공직": 6097,
      "젊은이": 6098,
      "원고": 6099,
      "IPO": 6100,
      "양극": 6101,
      "단백": 6102,
      "하이브리드": 6103,
      "마세요": 6104,
      "테슬라": 6105,
      "재능": 6106,
      "욕심": 6107,
      "우량": 6108,
      "냉장고": 6109,
      "당원": 6110,
      "눌": 6111,
      "##르크": 6112,
      "져야": 6113,
      "문장": 6114,
      "인턴": 6115,
      "낯": 6116,
      "약품": 6117,
      "경제학": 6118,
      "q": 6119,
      "못한다": 6120,
      "음식점": 6121,
      "깎": 6122,
      "고마": 6123,
      "마일": 6124,
      "AR": 6125,
      "플로": 6126,
      "갓": 6127,
      "휩": 6128,
      "전두": 6129,
      "관리자": 6130,
      "##이도": 6131,
      "도모": 6132,
      "탕": 6133,
      "원격": 6134,
      "도발": 6135,
      "박수": 6136,
      "아끼": 6137,
      "##미지": 6138,
      "##투자": 6139,
      "카운": 6140,
      "##나항공": 6141,
      "채우": 6142,
      "부추": 6143,
      "아시아나항공": 6144,
      "시킨다": 6145,
      "발목": 6146,
      "뛰어나": 6147,
      "생계": 6148,
      "혈액": 6149,
      "##온다": 6150,
      "잠실": 6151,
      "역세": 6152,
      "감상": 6153,
      "그리스도": 6154,
      "고르": 6155,
      "뛰어넘": 6156,
      "##데미": 6157,
      "폭락": 6158,
      "발명": 6159,
      "객실": 6160,
      "책임지": 6161,
      "중부": 6162,
      "작곡": 6163,
      "Pro": 6164,
      "##고속": 6165,
      "슬로": 6166,
      "용서": 6167,
      "아이돌": 6168,
      "무사": 6169,
      "민국": 6170,
      "살아남": 6171,
      "아카데미": 6172,
      "받아들여": 6173,
      "동서": 6174,
      "##전력": 6175,
      "헐": 6176,
      "들어와": 6177,
      "죄인": 6178,
      "山": 6179,
      "##OC": 6180,
      "밀어": 6181,
      "되게": 6182,
      "수면": 6183,
      "모은": 6184,
      "타임스": 6185,
      "벌였": 6186,
      "특이": 6187,
      "Sh": 6188,
      "험": 6189,
      "아까": 6190,
      "##긴다": 6191,
      "##덜란드": 6192,
      "네덜란드": 6193,
      "##기금": 6194,
      "日": 6195,
      "매국노": 6196,
      "꼬라지": 6197,
      "외면": 6198,
      "아시": 6199,
      "실용": 6200,
      "인포": 6201,
      "땀": 6202,
      "액션": 6203,
      "##ark": 6204,
      "육박": 6205,
      "내비": 6206,
      "약물": 6207,
      "종시": 6208,
      "무지": 6209,
      "BU": 6210,
      "죽여": 6211,
      "화합": 6212,
      "건의": 6213,
      "역임": 6214,
      "때리": 6215,
      "우연": 6216,
      "친절": 6217,
      "담겨": 6218,
      "이른다": 6219,
      "한국어": 6220,
      "저기": 6221,
      "구름": 6222,
      "혀": 6223,
      "샷": 6224,
      "소액": 6225,
      "키움": 6226,
      "줍": 6227,
      "구호": 6228,
      "학위": 6229,
      "불량": 6230,
      "해안": 6231,
      "구원": 6232,
      "팜": 6233,
      "만일": 6234,
      "공매도": 6235,
      "켜": 6236,
      "CP": 6237,
      "신기": 6238,
      "건설업": 6239,
      "##토리": 6240,
      "독도": 6241,
      "빨간": 6242,
      "서양": 6243,
      "손님": 6244,
      "탈퇴": 6245,
      "An": 6246,
      "보단": 6247,
      "일회": 6248,
      "무산": 6249,
      "빨라": 6250,
      "스런": 6251,
      "도둑": 6252,
      "내려가": 6253,
      "영화제": 6254,
      "레저": 6255,
      "메타": 6256,
      "방영": 6257,
      "국정원": 6258,
      "불황": 6259,
      "모범": 6260,
      "소멸": 6261,
      "종종": 6262,
      "예산안": 6263,
      "재차": 6264,
      "##평가": 6265,
      "도널드": 6266,
      "저질": 6267,
      "부착": 6268,
      "미술관": 6269,
      "령": 6270,
      "코인": 6271,
      "진행할": 6272,
      "이종": 6273,
      "지법": 6274,
      "특례": 6275,
      "##생명": 6276,
      "크리스마스": 6277,
      "처방": 6278,
      "##보드": 6279,
      "강행": 6280,
      "지주회사": 6281,
      "무력": 6282,
      "금강": 6283,
      "합산": 6284,
      "##IG": 6285,
      "관여": 6286,
      "셋째": 6287,
      "la": 6288,
      "화상": 6289,
      "자본주의": 6290,
      "방치": 6291,
      "쿠팡": 6292,
      "리라": 6293,
      "##다란": 6294,
      "푼": 6295,
      "장수": 6296,
      "속성": 6297,
      "채워": 6298,
      "아모": 6299,
      "사무총장": 6300,
      "신주": 6301,
      "안타까": 6302,
      "파산": 6303,
      "하도": 6304,
      "신앙": 6305,
      "OECD": 6306,
      "##밀리": 6307,
      "김대중": 6308,
      "살해": 6309,
      "전당": 6310,
      "콘셉트": 6311,
      "우울": 6312,
      "119": 6313,
      "인문": 6314,
      "시국": 6315,
      "붙이": 6316,
      "송금": 6317,
      "잔고": 6318,
      "거지": 6319,
      "요금제": 6320,
      "먹거리": 6321,
      "창구": 6322,
      "##사스": 6323,
      "##경제": 6324,
      "트래": 6325,
      "휘발": 6326,
      "##ong": 6327,
      "퍼시": 6328,
      "단백질": 6329,
      "응급": 6330,
      "일산": 6331,
      "여권": 6332,
      "그러므로": 6333,
      "##플러스": 6334,
      "모를": 6335,
      "보좌": 6336,
      "알파": 6337,
      "수분": 6338,
      "인텔": 6339,
      "##스키": 6340,
      "필드": 6341,
      "닉": 6342,
      "논쟁": 6343,
      "##세포": 6344,
      "##노총": 6345,
      "전산": 6346,
      "외교부": 6347,
      "승용차": 6348,
      "사외": 6349,
      "진주": 6350,
      "수장": 6351,
      "갖췄": 6352,
      "에프": 6353,
      "가려": 6354,
      "귀국": 6355,
      "전설": 6356,
      "약국": 6357,
      "##ect": 6358,
      "##언스": 6359,
      "봉쇄": 6360,
      "##포구": 6361,
      "연애": 6362,
      "김용": 6363,
      "심해": 6364,
      "입구": 6365,
      "손익": 6366,
      "CN": 6367,
      "##나이": 6368,
      "생길": 6369,
      "공조": 6370,
      "추운": 6371,
      "신동": 6372,
      "중독": 6373,
      "정한": 6374,
      "제이": 6375,
      "##래도": 6376,
      "##ack": 6377,
      "전두환": 6378,
      "대목": 6379,
      "웍": 6380,
      "이슬람": 6381,
      "##케이": 6382,
      "차려": 6383,
      "##징금": 6384,
      "드러냈": 6385,
      "노동조합": 6386,
      "가요": 6387,
      "걍": 6388,
      "##EA": 6389,
      "롯데마트": 6390,
      "##bo": 6391,
      "KO": 6392,
      "각오": 6393,
      "##탄소": 6394,
      "중지": 6395,
      "엇갈": 6396,
      "회생": 6397,
      "텍사스": 6398,
      "김재": 6399,
      "떠들": 6400,
      "상세": 6401,
      "낭비": 6402,
      "##블릿": 6403,
      "보드": 6404,
      "참사": 6405,
      "오일": 6406,
      "코치": 6407,
      "치르": 6408,
      "##덱스": 6409,
      "대지": 6410,
      "신혼": 6411,
      "소주": 6412,
      "티켓": 6413,
      "타령": 6414,
      "떨어질": 6415,
      "신인": 6416,
      "##유럽": 6417,
      "##어트": 6418,
      "중복": 6419,
      "감당": 6420,
      "닦": 6421,
      "좋아하": 6422,
      "지목": 6423,
      "씻": 6424,
      "된다며": 6425,
      "##숭이": 6426,
      "직면": 6427,
      "증언": 6428,
      "응답자": 6429,
      "증인": 6430,
      "지혜": 6431,
      "가하": 6432,
      "횟수": 6433,
      "##남도": 6434,
      "계단": 6435,
      "철거": 6436,
      "소련": 6437,
      "탁월": 6438,
      "신부": 6439,
      "어두": 6440,
      "##ns": 6441,
      "잦": 6442,
      "##어버": 6443,
      "감자": 6444,
      "언젠": 6445,
      "한쪽": 6446,
      "원작": 6447,
      "범행": 6448,
      "수강": 6449,
      "코오": 6450,
      "공세": 6451,
      "수출입": 6452,
      "야간": 6453,
      "원정": 6454,
      "전수": 6455,
      "매치": 6456,
      "정신병": 6457,
      "##렉션": 6458,
      "스님": 6459,
      "맞물": 6460,
      "그래야": 6461,
      "항의": 6462,
      "거친": 6463,
      "도출": 6464,
      "웃기": 6465,
      "최우선": 6466,
      "PD": 6467,
      "그래픽": 6468,
      "괴롭": 6469,
      "마인": 6470,
      "##해야": 6471,
      "##ill": 6472,
      "SUV": 6473,
      "성경": 6474,
      "추후": 6475,
      "로이터": 6476,
      "무서운": 6477,
      "남한": 6478,
      "인가요": 6479,
      "김일": 6480,
      "자신감": 6481,
      "동성": 6482,
      "해지": 6483,
      "회원국": 6484,
      "옮기": 6485,
      "풍력": 6486,
      "##포트": 6487,
      "김진": 6488,
      "기울이": 6489,
      "모빌리티": 6490,
      "꿈꾸": 6491,
      "퍼시픽": 6492,
      "인연": 6493,
      "상단": 6494,
      "건축물": 6495,
      "##리스트": 6496,
      "감싸": 6497,
      "녀석": 6498,
      "굽": 6499,
      "##워하": 6500,
      "한국전력": 6501,
      "관할": 6502,
      "조제": 6503,
      "장려": 6504,
      "코오롱": 6505,
      "한우": 6506,
      "태블릿": 6507,
      "##북도": 6508,
      "컨텐츠": 6509,
      "정제": 6510,
      "##수산": 6511,
      "유권자": 6512,
      "영구": 6513,
      "교통사고": 6514,
      "실효": 6515,
      "서브": 6516,
      "내보": 6517,
      "일당": 6518,
      "스펙": 6519,
      "육군": 6520,
      "LS": 6521,
      "현물": 6522,
      "선착": 6523,
      "써야": 6524,
      "어쨌": 6525,
      "실점": 6526,
      "105": 6527,
      "튜": 6528,
      "동구": 6529,
      "##더스": 6530,
      "구멍": 6531,
      "수년": 6532,
      "백악": 6533,
      "대륙": 6534,
      "횡령": 6535,
      "오가": 6536,
      "TF": 6537,
      "참으로": 6538,
      "베네": 6539,
      "벅스": 6540,
      "to": 6541,
      "안드로": 6542,
      "막말": 6543,
      "웬": 6544,
      "위장": 6545,
      "착한": 6546,
      "기어": 6547,
      "목포": 6548,
      "동화": 6549,
      "탈락": 6550,
      "료": 6551,
      "##구요": 6552,
      "솔로": 6553,
      "유럽연합": 6554,
      "창업자": 6555,
      "vs": 6556,
      "송도": 6557,
      "소감": 6558,
      "내게": 6559,
      "거뒀": 6560,
      "충성": 6561,
      "and": 6562,
      "주식회사": 6563,
      "련": 6564,
      "신학": 6565,
      "응용": 6566,
      "##oT": 6567,
      "의자": 6568,
      "##트라": 6569,
      "##ri": 6570,
      "농구": 6571,
      "일어났": 6572,
      "단식": 6573,
      "##ud": 6574,
      "LTE": 6575,
      "지검": 6576,
      "재직": 6577,
      "마디": 6578,
      "판교": 6579,
      "##ant": 6580,
      "김상": 6581,
      "안양": 6582,
      "그랜드": 6583,
      "니깐": 6584,
      "이놈": 6585,
      "##일랜드": 6586,
      "##요타": 6587,
      "##호텔": 6588,
      "한참": 6589,
      "착각": 6590,
      "사양": 6591,
      "SC": 6592,
      "##av": 6593,
      "룰": 6594,
      "할아버지": 6595,
      "장기간": 6596,
      "청춘": 6597,
      "호수": 6598,
      "실종": 6599,
      "납입": 6600,
      "OS": 6601,
      "음반": 6602,
      "두기": 6603,
      "광명": 6604,
      "대강": 6605,
      "장벽": 6606,
      "##FA": 6607,
      "일보": 6608,
      "색깔": 6609,
      "딜러": 6610,
      "푸르": 6611,
      "줄기": 6612,
      "하수": 6613,
      "##EX": 6614,
      "자빠": 6615,
      "##hing": 6616,
      "Con": 6617,
      "홈플러스": 6618,
      "박차": 6619,
      "영등": 6620,
      "짚": 6621,
      "원재": 6622,
      "꼼꼼": 6623,
      "한방": 6624,
      "결심": 6625,
      "ᄁ": 6626,
      "골든": 6627,
      "핑크": 6628,
      "장례": 6629,
      "yoy": 6630,
      "뭔지": 6631,
      "포괄": 6632,
      "순천": 6633,
      "향하": 6634,
      "본점": 6635,
      "실체": 6636,
      "크리": 6637,
      "##지부": 6638,
      "유진": 6639,
      "유대": 6640,
      "모이": 6641,
      "병사": 6642,
      "깔끔": 6643,
      "아티스트": 6644,
      "명목": 6645,
      "학문": 6646,
      "170": 6647,
      "한류": 6648,
      "앞선": 6649,
      "깡": 6650,
      "원재료": 6651,
      "감수": 6652,
      "관절": 6653,
      "식량": 6654,
      "동행": 6655,
      "2500": 6656,
      "극우": 6657,
      "해진다": 6658,
      "목록": 6659,
      "##운전": 6660,
      "탄탄": 6661,
      "1200": 6662,
      "먹이": 6663,
      "순차": 6664,
      "위조": 6665,
      "폭스": 6666,
      "형상": 6667,
      "남쪽": 6668,
      "노총": 6669,
      "출생": 6670,
      "웹툰": 6671,
      "세븐": 6672,
      "강동": 6673,
      "윈도": 6674,
      "취향": 6675,
      "기쁨": 6676,
      "나아": 6677,
      "대수": 6678,
      "개발자": 6679,
      "112": 6680,
      "##ure": 6681,
      "입니까": 6682,
      "몬스터": 6683,
      "102": 6684,
      "상원": 6685,
      "아마도": 6686,
      "##시설": 6687,
      "개그": 6688,
      "##one": 6689,
      "레인": 6690,
      "스페셜": 6691,
      "워치": 6692,
      "조속": 6693,
      "지옥": 6694,
      "人": 6695,
      "##센티브": 6696,
      "인센티브": 6697,
      "DS": 6698,
      "아쉽": 6699,
      "더러": 6700,
      "검출": 6701,
      "백악관": 6702,
      "수호": 6703,
      "별다른": 6704,
      "증세": 6705,
      "##모비스": 6706,
      "추종": 6707,
      "현대모비스": 6708,
      "곱": 6709,
      "ᅮᅮ": 6710,
      "ELS": 6711,
      "첫날": 6712,
      "후배": 6713,
      "가해자": 6714,
      "진지": 6715,
      "들어왔": 6716,
      "미분": 6717,
      "카테": 6718,
      "인데요": 6719,
      "스웨덴": 6720,
      "오지": 6721,
      "대우건설": 6722,
      "이치": 6723,
      "갱신": 6724,
      "공모전": 6725,
      "國": 6726,
      "제조사": 6727,
      "뉴딜": 6728,
      "등기": 6729,
      "##pl": 6730,
      "사흘": 6731,
      "대림": 6732,
      "환급": 6733,
      "리츠": 6734,
      "약자": 6735,
      "온실": 6736,
      "대구시": 6737,
      "출구": 6738,
      "##단체": 6739,
      "커다란": 6740,
      "농단": 6741,
      "왜냐하면": 6742,
      "선교": 6743,
      "위선": 6744,
      "피로": 6745,
      "금메달": 6746,
      "대원": 6747,
      "발광": 6748,
      "민영": 6749,
      "부양책": 6750,
      "IoT": 6751,
      "대놓": 6752,
      "가르치": 6753,
      "비서관": 6754,
      "관람객": 6755,
      "사명": 6756,
      "##ok": 6757,
      "수험": 6758,
      "##조리": 6759,
      "운수": 6760,
      "##먼트": 6761,
      "중재": 6762,
      "성수기": 6763,
      "##덩이": 6764,
      "욕구": 6765,
      "염두": 6766,
      "후쿠": 6767,
      "그야": 6768,
      "혐오": 6769,
      "2025": 6770,
      "말레이": 6771,
      "##주얼": 6772,
      "되찾": 6773,
      "정무": 6774,
      "김기": 6775,
      "수습": 6776,
      "메일": 6777,
      "##아웃": 6778,
      "노트북": 6779,
      "따위": 6780,
      "관료": 6781,
      "커플": 6782,
      "놨": 6783,
      "마라": 6784,
      "더럽": 6785,
      "실사": 6786,
      "고맙": 6787,
      "고집": 6788,
      "스킨": 6789,
      "현직": 6790,
      "##ice": 6791,
      "수위": 6792,
      "교보": 6793,
      "경품": 6794,
      "본래": 6795,
      "매트": 6796,
      "반환": 6797,
      "당뇨": 6798,
      "잠깐": 6799,
      "배운": 6800,
      "언니": 6801,
      "붙잡": 6802,
      "꼬리": 6803,
      "서초구": 6804,
      "기생충": 6805,
      "아나": 6806,
      "자격증": 6807,
      "땜": 6808,
      "보강": 6809,
      "예선": 6810,
      "외모": 6811,
      "원숭이": 6812,
      "고백": 6813,
      "내장": 6814,
      "양아치": 6815,
      "화웨이": 6816,
      "개헌": 6817,
      "효성": 6818,
      "적금": 6819,
      "출국": 6820,
      "윗": 6821,
      "성우": 6822,
      "저널": 6823,
      "골라": 6824,
      "유족": 6825,
      "결산": 6826,
      "1995": 6827,
      "계급": 6828,
      "짖": 6829,
      "아무래도": 6830,
      "앤드": 6831,
      "미미": 6832,
      "잠재력": 6833,
      "이룬": 6834,
      "연중": 6835,
      "신용카드": 6836,
      "깨달": 6837,
      "자재": 6838,
      "사격": 6839,
      "멘토": 6840,
      "종자": 6841,
      "##IP": 6842,
      "웍스": 6843,
      "만족도": 6844,
      "BMW": 6845,
      "펼쳤": 6846,
      "일체": 6847,
      "언론사": 6848,
      "우편": 6849,
      "개판": 6850,
      "물러나": 6851,
      "남용": 6852,
      "정세": 6853,
      "통지": 6854,
      "망치": 6855,
      "성폭행": 6856,
      "메이크": 6857,
      "Fed": 6858,
      "씹": 6859,
      "펄": 6860,
      "사료": 6861,
      "씨티": 6862,
      "채소": 6863,
      "흘리": 6864,
      "골프장": 6865,
      "잭": 6866,
      "헛소리": 6867,
      "으론": 6868,
      "ᅵ": 6869,
      "조짐": 6870,
      "다변": 6871,
      "BUY": 6872,
      "상거래": 6873,
      "인쇄": 6874,
      "캘리": 6875,
      "##원장": 6876,
      "환상": 6877,
      "한두": 6878,
      "문통": 6879,
      "무용": 6880,
      "이력": 6881,
      "부스타": 6882,
      "LA": 6883,
      "어스": 6884,
      "1970": 6885,
      "치유": 6886,
      "스틸": 6887,
      "낙관": 6888,
      "이재용": 6889,
      "##타인": 6890,
      "농도": 6891,
      "궁극": 6892,
      "중시": 6893,
      "고장": 6894,
      "진전": 6895,
      "DB": 6896,
      "맞춘": 6897,
      "명성": 6898,
      "알바": 6899,
      "방학": 6900,
      "분담": 6901,
      "기득": 6902,
      "유인": 6903,
      "미션": 6904,
      "처장": 6905,
      "이만": 6906,
      "배신": 6907,
      "무효": 6908,
      "후손": 6909,
      "꼴통": 6910,
      "치즈": 6911,
      "반사": 6912,
      "연상": 6913,
      "렌즈": 6914,
      "이를": 6915,
      "휘발유": 6916,
      "인플": 6917,
      "연세대": 6918,
      "음원": 6919,
      "기각": 6920,
      "전경": 6921,
      "접어들": 6922,
      "광주시": 6923,
      "교도": 6924,
      "고구": 6925,
      "들어선": 6926,
      "르노": 6927,
      "예의": 6928,
      "##스트라": 6929,
      "한창": 6930,
      "고사": 6931,
      "##소드": 6932,
      "수명": 6933,
      "림": 6934,
      "##시간": 6935,
      "빠져나": 6936,
      "피자": 6937,
      "저리": 6938,
      "선거법": 6939,
      "제자": 6940,
      "야지": 6941,
      "바퀴": 6942,
      "용이": 6943,
      "뜬": 6944,
      "##아이": 6945,
      "추모": 6946,
      "소유자": 6947,
      "우스": 6948,
      "연이": 6949,
      "VR": 6950,
      "씌": 6951,
      "골목": 6952,
      "뺏": 6953,
      "어우": 6954,
      "성사": 6955,
      "아쉬움": 6956,
      "추측": 6957,
      "토크": 6958,
      "앞당": 6959,
      "##구역": 6960,
      "##번에": 6961,
      "스쿨": 6962,
      "해산": 6963,
      "분배": 6964,
      "그야말로": 6965,
      "##오스": 6966,
      "긴밀": 6967,
      "아스": 6968,
      "세액": 6969,
      "확고": 6970,
      "남아": 6971,
      "컬렉션": 6972,
      "컨퍼런스": 6973,
      "환매": 6974,
      "취업자": 6975,
      "##시마": 6976,
      "산다": 6977,
      "##ain": 6978,
      "##per": 6979,
      "배당금": 6980,
      "쟁점": 6981,
      "Un": 6982,
      "Com": 6983,
      "친화": 6984,
      "컷": 6985,
      "Tr": 6986,
      "걸릴": 6987,
      "쳤": 6988,
      "후회": 6989,
      "확립": 6990,
      "키즈": 6991,
      "저소득층": 6992,
      "가산": 6993,
      "도래": 6994,
      "프로세스": 6995,
      "태어난": 6996,
      "무너지": 6997,
      "안드로이드": 6998,
      "이영": 6999,
      "중화": 7000,
      "기상청": 7001,
      "에피": 7002,
      "양반": 7003,
      "말레이시아": 7004,
      "재발": 7005,
      "카테고리": 7006,
      "세입": 7007,
      "北": 7008,
      "문명": 7009,
      "푸른": 7010,
      "엔지니어링": 7011,
      "전직": 7012,
      "##타운": 7013,
      "들리": 7014,
      "스파": 7015,
      "낚시": 7016,
      "입맛": 7017,
      "아일랜드": 7018,
      "##봐야": 7019,
      "자존심": 7020,
      "협동조합": 7021,
      "연인": 7022,
      "##공정": 7023,
      "##MO": 7024,
      "드디어": 7025,
      "소독": 7026,
      "뱅킹": 7027,
      "박지": 7028,
      "동계": 7029,
      "항소": 7030,
      "재편": 7031,
      "부딪": 7032,
      "문정": 7033,
      "BO": 7034,
      "주유소": 7035,
      "특별법": 7036,
      "전교": 7037,
      "키워드": 7038,
      "##ID": 7039,
      "합법": 7040,
      "일지": 7041,
      "브레이": 7042,
      "##ND": 7043,
      "업소": 7044,
      "아가": 7045,
      "이산": 7046,
      "오빠": 7047,
      "##iz": 7048,
      "정황": 7049,
      "보인다고": 7050,
      "사자": 7051,
      "돼서": 7052,
      "게시판": 7053,
      "렉": 7054,
      "싸이": 7055,
      "안다": 7056,
      "웨어": 7057,
      "즐거움": 7058,
      "권역": 7059,
      "수상자": 7060,
      "국어": 7061,
      "오로지": 7062,
      "야권": 7063,
      "내주": 7064,
      "비치": 7065,
      "일부러": 7066,
      "운임": 7067,
      "면담": 7068,
      "억지": 7069,
      "1996": 7070,
      "난민": 7071,
      "병력": 7072,
      "찢": 7073,
      "필자": 7074,
      "퍼센트": 7075,
      "단기간": 7076,
      "드래곤": 7077,
      "인체": 7078,
      "물어": 7079,
      "아산": 7080,
      "회의실": 7081,
      "##민주": 7082,
      "##und": 7083,
      "SD": 7084,
      "똑똑": 7085,
      "아닌지": 7086,
      "깨닫": 7087,
      "레버": 7088,
      "즐겨": 7089,
      "선착순": 7090,
      "저조": 7091,
      "ᄒᄒᄒ": 7092,
      "사옥": 7093,
      "ᄍᄍᄍ": 7094,
      "정례": 7095,
      "내릴": 7096,
      "기업인": 7097,
      "진리": 7098,
      "사립": 7099,
      "템": 7100,
      "중형": 7101,
      "##매김": 7102,
      "##미디어": 7103,
      "아시안": 7104,
      "드루": 7105,
      "자리매김": 7106,
      "文": 7107,
      "진학": 7108,
      "##지오": 7109,
      "보낼": 7110,
      "바란다고": 7111,
      "신도": 7112,
      "연일": 7113,
      "찾아보": 7114,
      "최다": 7115,
      "부하": 7116,
      "사라졌": 7117,
      "살짝": 7118,
      "한양": 7119,
      "코미": 7120,
      "날아": 7121,
      "흔들리": 7122,
      "북쪽": 7123,
      "Al": 7124,
      "하원": 7125,
      "통치": 7126,
      "여인": 7127,
      "터널": 7128,
      "발동": 7129,
      "함부": 7130,
      "세율": 7131,
      "트레": 7132,
      "이모": 7133,
      "주부": 7134,
      "구경": 7135,
      "차종": 7136,
      "흔적": 7137,
      "앓": 7138,
      "무렵": 7139,
      "Co": 7140,
      "강해": 7141,
      "불렀": 7142,
      "정점": 7143,
      "선점": 7144,
      "공짜": 7145,
      "너스": 7146,
      "헝": 7147,
      "웃돌": 7148,
      "EV": 7149,
      "수산물": 7150,
      "발의": 7151,
      "빡": 7152,
      "##티나": 7153,
      "샀": 7154,
      "속하": 7155,
      "약한": 7156,
      "위해선": 7157,
      "보여준": 7158,
      "배후": 7159,
      "훔": 7160,
      "월간": 7161,
      "나빠": 7162,
      "썬": 7163,
      "부근": 7164,
      "상시": 7165,
      "좌석": 7166,
      "무주": 7167,
      "##처럼": 7168,
      "열기": 7169,
      "아픈": 7170,
      "간주": 7171,
      "강수": 7172,
      "미쳐": 7173,
      "그분": 7174,
      "이어진": 7175,
      "MA": 7176,
      "보통주": 7177,
      "##ES": 7178,
      "대리점": 7179,
      "강간": 7180,
      "미흡": 7181,
      "곤란": 7182,
      "햄": 7183,
      "아메리카": 7184,
      "끓": 7185,
      "포착": 7186,
      "##ee": 7187,
      "영남": 7188,
      "미국인": 7189,
      "공방": 7190,
      "뛰어들": 7191,
      "##12": 7192,
      "다이어트": 7193,
      "치명": 7194,
      "돌아섰": 7195,
      "재현": 7196,
      "##퍼니": 7197,
      "위법": 7198,
      "영세": 7199,
      "과징금": 7200,
      "총생": 7201,
      "캄": 7202,
      "크로": 7203,
      "미분양": 7204,
      "식민지": 7205,
      "밀집": 7206,
      "사들": 7207,
      "로직": 7208,
      "아모레": 7209,
      "박원순": 7210,
      "시술": 7211,
      "마냥": 7212,
      "따져": 7213,
      "최저치": 7214,
      "##교통": 7215,
      "지냈": 7216,
      "이루어진": 7217,
      "바꿀": 7218,
      "응시": 7219,
      "아야지": 7220,
      "사각": 7221,
      "왠": 7222,
      "크로스": 7223,
      "시현": 7224,
      "##루미": 7225,
      "똘": 7226,
      "정산": 7227,
      "##ment": 7228,
      "즐거운": 7229,
      "내년도": 7230,
      "ID": 7231,
      "조립": 7232,
      "열풍": 7233,
      "아저": 7234,
      "韓": 7235,
      "대박": 7236,
      "측근": 7237,
      "108": 7238,
      "부드러운": 7239,
      "수확": 7240,
      "레이저": 7241,
      "자부": 7242,
      "시멘트": 7243,
      "##어넣": 7244,
      "준다고": 7245,
      "잡지": 7246,
      "씽": 7247,
      "En": 7248,
      "완만": 7249,
      "상선": 7250,
      "불공정": 7251,
      "컴퍼니": 7252,
      "달라지": 7253,
      "선포": 7254,
      "##센터": 7255,
      "김일성": 7256,
      "그렇지만": 7257,
      "우세": 7258,
      "학력": 7259,
      "방사능": 7260,
      "그네": 7261,
      "총생산": 7262,
      "감소세": 7263,
      "절대로": 7264,
      "다채": 7265,
      "교차": 7266,
      "상표": 7267,
      "장세": 7268,
      "댄스": 7269,
      "인형": 7270,
      "바위": 7271,
      "세련": 7272,
      "##여행": 7273,
      "대략": 7274,
      "무더": 7275,
      "정수": 7276,
      "인종": 7277,
      "숨겨": 7278,
      "아저씨": 7279,
      "제철": 7280,
      "흠": 7281,
      "언젠가": 7282,
      "넉": 7283,
      "주파": 7284,
      "명백": 7285,
      "삼성그룹": 7286,
      "강좌": 7287,
      "인디": 7288,
      "삭감": 7289,
      "SA": 7290,
      "절약": 7291,
      "정경": 7292,
      "머무": 7293,
      "핏": 7294,
      "중고차": 7295,
      "이태": 7296,
      "영토": 7297,
      "손쉽": 7298,
      "치우": 7299,
      "침묵": 7300,
      "##조선": 7301,
      "##입니다": 7302,
      "돌아왔": 7303,
      "CG": 7304,
      "점령": 7305,
      "구동": 7306,
      "아세": 7307,
      "홍준": 7308,
      "들어온": 7309,
      "퇴출": 7310,
      "짜증": 7311,
      "영리": 7312,
      "벤치": 7313,
      "산책": 7314,
      "깃": 7315,
      "기대치": 7316,
      "더만": 7317,
      "베르": 7318,
      "형편": 7319,
      "사운드": 7320,
      "그대": 7321,
      "주어": 7322,
      "수직": 7323,
      "절실": 7324,
      "당황": 7325,
      "구별": 7326,
      "단다": 7327,
      "지역구": 7328,
      "입금": 7329,
      "##35": 7330,
      "공군": 7331,
      "노릇": 7332,
      "캘리포": 7333,
      "공영": 7334,
      "캘리포니아": 7335,
      "##러져": 7336,
      "생생": 7337,
      "흙": 7338,
      "##구리": 7339,
      "포토": 7340,
      "꾀": 7341,
      "자국민": 7342,
      "법조": 7343,
      "발송": 7344,
      "타결": 7345,
      "언더": 7346,
      "익스": 7347,
      "항암": 7348,
      "도매": 7349,
      "도시락": 7350,
      "줘라": 7351,
      "둘러싸": 7352,
      "기쁘": 7353,
      "더욱이": 7354,
      "으려는": 7355,
      "자칫": 7356,
      "수량": 7357,
      "정면": 7358,
      "##구석": 7359,
      "몽골": 7360,
      "유한": 7361,
      "융자": 7362,
      "박영": 7363,
      "팔리": 7364,
      "이지": 7365,
      "비스": 7366,
      "##io": 7367,
      "##규모": 7368,
      "심정": 7369,
      "구비": 7370,
      "로비": 7371,
      "CB": 7372,
      "더라고": 7373,
      "동탄": 7374,
      "펠": 7375,
      "근원": 7376,
      "당할": 7377,
      "맡기": 7378,
      "마침내": 7379,
      "양보": 7380,
      "날짜": 7381,
      "대놓고": 7382,
      "출하량": 7383,
      "공백": 7384,
      "소니": 7385,
      "##ff": 7386,
      "신사업": 7387,
      "거시": 7388,
      "##ass": 7389,
      "트랜": 7390,
      "실명": 7391,
      "##줌마": 7392,
      "회동": 7393,
      "패밀리": 7394,
      "일행": 7395,
      "치가": 7396,
      "귀족": 7397,
      "조약": 7398,
      "성립": 7399,
      "전문점": 7400,
      "삐": 7401,
      "##박스": 7402,
      "이재명": 7403,
      "전술": 7404,
      "시켜라": 7405,
      "카이": 7406,
      "상영": 7407,
      "감추": 7408,
      "115": 7409,
      "피의자": 7410,
      "##제철": 7411,
      "얼음": 7412,
      "##ie": 7413,
      "홍준표": 7414,
      "세수": 7415,
      "도박": 7416,
      "출처": 7417,
      "배우자": 7418,
      "시황": 7419,
      "아리": 7420,
      "##릿수": 7421,
      "구로": 7422,
      "유관": 7423,
      "디젤": 7424,
      "아줌마": 7425,
      "성형": 7426,
      "반기": 7427,
      "게임즈": 7428,
      "대조": 7429,
      "##투스": 7430,
      "브렉": 7431,
      "교정": 7432,
      "엮": 7433,
      "교활": 7434,
      "과천": 7435,
      "저금리": 7436,
      "어려웠": 7437,
      "NC": 7438,
      "집합": 7439,
      "관장": 7440,
      "편한": 7441,
      "##ust": 7442,
      "러닝": 7443,
      "대형주": 7444,
      "트로": 7445,
      "인천시": 7446,
      "##러졌": 7447,
      "고부": 7448,
      "은지": 7449,
      "상정": 7450,
      "드라이브": 7451,
      "그레이": 7452,
      "어떨": 7453,
      "##IM": 7454,
      "맥락": 7455,
      "우린": 7456,
      "소비재": 7457,
      "놓치": 7458,
      "이례": 7459,
      "유승": 7460,
      "때로": 7461,
      "즐겁": 7462,
      "그릇": 7463,
      "해킹": 7464,
      "온실가스": 7465,
      "토요일": 7466,
      "브로": 7467,
      "끌어내": 7468,
      "양해": 7469,
      "1994": 7470,
      "셔야": 7471,
      "만료": 7472,
      "##age": 7473,
      "##저리": 7474,
      "##FC": 7475,
      "결성": 7476,
      "밝혀졌": 7477,
      "낮춰": 7478,
      "올레": 7479,
      "생애": 7480,
      "광산": 7481,
      "어쩌면": 7482,
      "환원": 7483,
      "피고인": 7484,
      "진동": 7485,
      "신성": 7486,
      "##스턴": 7487,
      "포도": 7488,
      "사용자": 7489,
      "기점": 7490,
      "Val": 7491,
      "일괄": 7492,
      "과학자": 7493,
      "벤츠": 7494,
      "광역시": 7495,
      "뒤늦": 7496,
      "스터": 7497,
      "메이크업": 7498,
      "호가": 7499,
      "하단": 7500,
      "돌아온": 7501,
      "성숙": 7502,
      "##걸이": 7503,
      "끌려": 7504,
      "연다": 7505,
      "##잡이": 7506,
      "부끄럽": 7507,
      "킨": 7508,
      "교원": 7509,
      "날개": 7510,
      "자산관리": 7511,
      "느그": 7512,
      "##외선": 7513,
      "밸리": 7514,
      "실수요": 7515,
      "##투자증권": 7516,
      "소규모": 7517,
      "주춤": 7518,
      "처지": 7519,
      "모형": 7520,
      "파장": 7521,
      "파주": 7522,
      "외신": 7523,
      "줘서": 7524,
      "쑈": 7525,
      "응모": 7526,
      "최강": 7527,
      "전적": 7528,
      "개관": 7529,
      "기부금": 7530,
      "으신": 7531,
      "학대": 7532,
      "양쪽": 7533,
      "과태": 7534,
      "골자": 7535,
      "카카오톡": 7536,
      "줌": 7537,
      "고려대": 7538,
      "단단": 7539,
      "Sp": 7540,
      "말아먹": 7541,
      "일으킨": 7542,
      "찔": 7543,
      "관광지": 7544,
      "금년": 7545,
      "가이드라인": 7546,
      "반해": 7547,
      "복무": 7548,
      "선거구": 7549,
      "대치": 7550,
      "몰래": 7551,
      "신년": 7552,
      "등지": 7553,
      "허락": 7554,
      "남겼": 7555,
      "##먼스": 7556,
      "전동": 7557,
      "189": 7558,
      "일어날": 7559,
      "이집": 7560,
      "BB": 7561,
      "디바": 7562,
      "과태료": 7563,
      "러브": 7564,
      "이집트": 7565,
      "360": 7566,
      "옐": 7567,
      "sns": 7568,
      "어쨌든": 7569,
      "FA": 7570,
      "글자": 7571,
      "퀄": 7572,
      "서식": 7573,
      "변명": 7574,
      "##프레": 7575,
      "정국": 7576,
      "##ib": 7577,
      "농어": 7578,
      "야기": 7579,
      "호황": 7580,
      "시카": 7581,
      "놀라운": 7582,
      "낸다": 7583,
      "회로": 7584,
      "죄다": 7585,
      "당첨자": 7586,
      "호평": 7587,
      "참석자": 7588,
      "걸까": 7589,
      "변형": 7590,
      "떠났": 7591,
      "450": 7592,
      "청탁": 7593,
      "HS": 7594,
      "##범죄": 7595,
      "민중": 7596,
      "느냐는": 7597,
      "모인": 7598,
      "에피소드": 7599,
      "대여": 7600,
      "일선": 7601,
      "했으니": 7602,
      "고의": 7603,
      "저것": 7604,
      "눈앞": 7605,
      "획기": 7606,
      "휴게": 7607,
      "옴": 7608,
      "수시로": 7609,
      "렀": 7610,
      "따라가": 7611,
      "건국": 7612,
      "랠": 7613,
      "111": 7614,
      "란다": 7615,
      "가까워": 7616,
      "워터": 7617,
      "도청": 7618,
      "군산": 7619,
      "짙": 7620,
      "우크라": 7621,
      "바이든": 7622,
      "현역": 7623,
      "미용": 7624,
      "사찰": 7625,
      "ROE": 7626,
      "킬로": 7627,
      "퀘": 7628,
      "##크스": 7629,
      "밀접": 7630,
      "가이": 7631,
      "내각": 7632,
      "요약": 7633,
      "민노총": 7634,
      "숨기": 7635,
      "광범": 7636,
      "당선인": 7637,
      "은가": 7638,
      "조원": 7639,
      "특위": 7640,
      "목격": 7641,
      "신작": 7642,
      "재학": 7643,
      "KA": 7644,
      "전이": 7645,
      "벨트": 7646,
      "반납": 7647,
      "일요일": 7648,
      "이어져": 7649,
      "소원": 7650,
      "똑바로": 7651,
      "퍼포": 7652,
      "재활": 7653,
      "이적": 7654,
      "포드": 7655,
      "퍼포먼스": 7656,
      "신청서": 7657,
      "인지도": 7658,
      "경과": 7659,
      "걸친": 7660,
      "MC": 7661,
      "관건": 7662,
      "종로구": 7663,
      "본선": 7664,
      "일간": 7665,
      "발판": 7666,
      "가져가": 7667,
      "관해": 7668,
      "원조": 7669,
      "GB": 7670,
      "FR": 7671,
      "마인드": 7672,
      "의외": 7673,
      "자진": 7674,
      "분포": 7675,
      "##거나": 7676,
      "대세": 7677,
      "u": 7678,
      "SDI": 7679,
      "생일": 7680,
      "끔": 7681,
      "##CO": 7682,
      "피트": 7683,
      "네티": 7684,
      "건가요": 7685,
      "##영향": 7686,
      "잣": 7687,
      "에이스": 7688,
      "계란": 7689,
      "출동": 7690,
      "제약사": 7691,
      "벌어졌": 7692,
      "기판": 7693,
      "강서": 7694,
      "의정부": 7695,
      "당내": 7696,
      "는군": 7697,
      "104": 7698,
      "붐": 7699,
      "기운": 7700,
      "운운": 7701,
      "복제": 7702,
      "로맨": 7703,
      "103": 7704,
      "회의소": 7705,
      "승계": 7706,
      "죄송": 7707,
      "애정": 7708,
      "주연": 7709,
      "로고": 7710,
      "출간": 7711,
      "125": 7712,
      "최후": 7713,
      "무척": 7714,
      "모시": 7715,
      "Bu": 7716,
      "##yst": 7717,
      "조중": 7718,
      "까다": 7719,
      "간격": 7720,
      "거세": 7721,
      "한인": 7722,
      "##십자": 7723,
      "산불": 7724,
      "##구니": 7725,
      "불행": 7726,
      "대두": 7727,
      "벌레": 7728,
      "민정": 7729,
      "전철": 7730,
      "영감": 7731,
      "##더니": 7732,
      "피할": 7733,
      "저감": 7734,
      "짤": 7735,
      "해법": 7736,
      "고성": 7737,
      "외환은행": 7738,
      "##저기": 7739,
      "간사": 7740,
      "배워": 7741,
      "달콤": 7742,
      "이라도": 7743,
      "가벼운": 7744,
      "대사관": 7745,
      "붓": 7746,
      "대내": 7747,
      "##엑스": 7748,
      "##ial": 7749,
      "아닌가요": 7750,
      "병역": 7751,
      "성추": 7752,
      "디스크": 7753,
      "FI": 7754,
      "여기저기": 7755,
      "도우": 7756,
      "가라": 7757,
      "멀티미디어": 7758,
      "여사": 7759,
      "안성": 7760,
      "단체장": 7761,
      "송파구": 7762,
      "둬": 7763,
      "탱크": 7764,
      "추격": 7765,
      "부시": 7766,
      "함부로": 7767,
      "州": 7768,
      "오스트": 7769,
      "운반": 7770,
      "조율": 7771,
      "##보험": 7772,
      "권단": 7773,
      "벌어진": 7774,
      "미스트": 7775,
      "핑계": 7776,
      "##비전": 7777,
      "아랍": 7778,
      "잎": 7779,
      "풍성": 7780,
      "간판": 7781,
      "네티즌": 7782,
      "준다는": 7783,
      "이뤄지지": 7784,
      "##act": 7785,
      "펌": 7786,
      "대중교통": 7787,
      "진중": 7788,
      "##거래위": 7789,
      "공정거래위": 7790,
      "고속도로": 7791,
      "진작": 7792,
      "의해서": 7793,
      "실습": 7794,
      "두루": 7795,
      "클리": 7796,
      "소진": 7797,
      "이온": 7798,
      "패스트": 7799,
      "##원회": 7800,
      "##관계": 7801,
      "갑작": 7802,
      "굶": 7803,
      "왕국": 7804,
      "240": 7805,
      "뒀": 7806,
      "##end": 7807,
      "던져": 7808,
      "금요일": 7809,
      "만성": 7810,
      "압축": 7811,
      "노르": 7812,
      "##금속": 7813,
      "東": 7814,
      "뉘": 7815,
      "날리": 7816,
      "고속도": 7817,
      "테크놀": 7818,
      "##ast": 7819,
      "버릴": 7820,
      "유래": 7821,
      "비해서": 7822,
      "수색": 7823,
      "막판": 7824,
      "몰라도": 7825,
      "laug": 7826,
      "##eo": 7827,
      "모금": 7828,
      "검진": 7829,
      "마비": 7830,
      "##내셔널": 7831,
      "이래서": 7832,
      "도지사": 7833,
      "총력": 7834,
      "기적": 7835,
      "인터내셔널": 7836,
      "미루": 7837,
      "계약서": 7838,
      "혈압": 7839,
      "laughing": 7840,
      "내세우": 7841,
      "518": 7842,
      "조장": 7843,
      "##본다": 7844,
      "시리아": 7845,
      "모건": 7846,
      "사연": 7847,
      "이순": 7848,
      "##둘러": 7849,
      "조상": 7850,
      "220": 7851,
      "##RAM": 7852,
      "저거": 7853,
      "주파수": 7854,
      "소집": 7855,
      "성추행": 7856,
      "STX": 7857,
      "천재": 7858,
      "징수": 7859,
      "녹음": 7860,
      "랠리": 7861,
      "체질": 7862,
      "얇": 7863,
      "난이도": 7864,
      "약점": 7865,
      "랭킹": 7866,
      "현저": 7867,
      "넘어선": 7868,
      "떠난": 7869,
      "본회의": 7870,
      "무언": 7871,
      "전신": 7872,
      "모기지": 7873,
      "줄줄": 7874,
      "욕망": 7875,
      "광범위": 7876,
      "우회": 7877,
      "버린다": 7878,
      "잘라": 7879,
      "바이어": 7880,
      "안경": 7881,
      "##마토": 7882,
      "도보": 7883,
      "포켓": 7884,
      "토스": 7885,
      "시비": 7886,
      "못지": 7887,
      "물려": 7888,
      "단원": 7889,
      "상관없이": 7890,
      "##전지": 7891,
      "상주": 7892,
      "구라": 7893,
      "정정": 7894,
      "지주사": 7895,
      "##다임": 7896,
      "##벌이": 7897,
      "늘릴": 7898,
      "기증": 7899,
      "패러다임": 7900,
      "티비": 7901,
      "106": 7902,
      "아픔": 7903,
      "방한": 7904,
      "사법부": 7905,
      "하여금": 7906,
      "바디": 7907,
      "##년단": 7908,
      "찬양": 7909,
      "파이프": 7910,
      "법제": 7911,
      "리콜": 7912,
      "유세": 7913,
      "기차": 7914,
      "##꺼번에": 7915,
      "한꺼번에": 7916,
      "헬기": 7917,
      "##제당": 7918,
      "숙소": 7919,
      "바둑": 7920,
      "제일제당": 7921,
      "별개": 7922,
      "##게임": 7923,
      "샌드": 7924,
      "넥센": 7925,
      "호구": 7926,
      "으라고": 7927,
      "하드웨어": 7928,
      "##전기": 7929,
      "니스": 7930,
      "교황": 7931,
      "대개": 7932,
      "등판": 7933,
      "페어": 7934,
      "효력": 7935,
      "안마": 7936,
      "밭": 7937,
      "열릴": 7938,
      "남동": 7939,
      "성동": 7940,
      "앞세워": 7941,
      "보행": 7942,
      "내려오": 7943,
      "선호도": 7944,
      "WTI": 7945,
      "라스": 7946,
      "아름답": 7947,
      "접하": 7948,
      "정화": 7949,
      "ai": 7950,
      "내구": 7951,
      "##uation": 7952,
      "광양": 7953,
      "유선": 7954,
      "헌신": 7955,
      "##연구": 7956,
      "경위": 7957,
      "범인": 7958,
      "방문객": 7959,
      "##업자": 7960,
      "노벨": 7961,
      "for": 7962,
      "자릿수": 7963,
      "지낸": 7964,
      "##서리": 7965,
      "바쁜": 7966,
      "드린": 7967,
      "중산": 7968,
      "##탄소년단": 7969,
      "농사": 7970,
      "방탄소년단": 7971,
      "Cl": 7972,
      "##바다": 7973,
      "파격": 7974,
      "탄압": 7975,
      "무단": 7976,
      "경보": 7977,
      "여주": 7978,
      "스피커": 7979,
      "인격": 7980,
      "다룬": 7981,
      "폴란드": 7982,
      "환승": 7983,
      "모래": 7984,
      "초등학생": 7985,
      "닌": 7986,
      "닥터": 7987,
      "전작": 7988,
      "WS": 7989,
      "주총": 7990,
      "한동안": 7991,
      "로그": 7992,
      "두려움": 7993,
      "차입금": 7994,
      "갈라": 7995,
      "으라": 7996,
      "이분": 7997,
      "시신": 7998,
      "공격력": 7999,
      "극심": 8000,
      "it": 8001,
      "인덱스": 8002,
      "##광역": 8003,
      "##에이": 8004,
      "어릴": 8005,
      "AA": 8006,
      "오리지": 8007,
      "고추": 8008,
      "정말로": 8009,
      "달할": 8010,
      "외곽": 8011,
      "드레스": 8012,
      "우드": 8013,
      "인과": 8014,
      "의상": 8015,
      "아이스": 8016,
      "돌아다니": 8017,
      "시체": 8018,
      "##ick": 8019,
      "갇": 8020,
      "##ᄏᄏ": 8021,
      "틴": 8022,
      "##MS": 8023,
      "임의": 8024,
      "증액": 8025,
      "로즈": 8026,
      "동대문": 8027,
      "보건복": 8028,
      "알고리": 8029,
      "대항": 8030,
      "##행위": 8031,
      "바꾼": 8032,
      "크루즈": 8033,
      "유죄": 8034,
      "알루미": 8035,
      "##랑이": 8036,
      "꽂": 8037,
      "시흥": 8038,
      "도저": 8039,
      "노란": 8040,
      "계신": 8041,
      "##아나": 8042,
      "AT": 8043,
      "109": 8044,
      "##톨릭": 8045,
      "나뉘": 8046,
      "어이": 8047,
      "##ry": 8048,
      "영동": 8049,
      "리뷰": 8050,
      "##버트": 8051,
      "권익": 8052,
      "##질랜드": 8053,
      "뉴질랜드": 8054,
      "출고": 8055,
      "혈세": 8056,
      "시한": 8057,
      "##본부": 8058,
      "나베": 8059,
      "##버리": 8060,
      "매번": 8061,
      "성폭력": 8062,
      "매진": 8063,
      "켄": 8064,
      "구석": 8065,
      "액세": 8066,
      "##풀이": 8067,
      "굵": 8068,
      "경관": 8069,
      "##보합": 8070,
      "금방": 8071,
      "심상": 8072,
      "가문": 8073,
      "의존도": 8074,
      "보입니다": 8075,
      "출원": 8076,
      "통행": 8077,
      "커진": 8078,
      "업적": 8079,
      "오디오": 8080,
      "폭염": 8081,
      "리버": 8082,
      "##청사": 8083,
      "미달": 8084,
      "전격": 8085,
      "다중": 8086,
      "영위": 8087,
      "우정": 8088,
      "이윤": 8089,
      "교장": 8090,
      "공존": 8091,
      "##59": 8092,
      "##form": 8093,
      "산학": 8094,
      "##ou": 8095,
      "##매매": 8096,
      "합계": 8097,
      "해임": 8098,
      "컨셉": 8099,
      "Bl": 8100,
      "고성장": 8101,
      "재수": 8102,
      "##ear": 8103,
      "거둔": 8104,
      "이목": 8105,
      "##디스": 8106,
      "시골": 8107,
      "냉동": 8108,
      "툴": 8109,
      "지상파": 8110,
      "어지": 8111,
      "들어간다": 8112,
      "약해": 8113,
      "지났": 8114,
      "오사": 8115,
      "시일": 8116,
      "##타기": 8117,
      "##88": 8118,
      "一": 8119,
      "107": 8120,
      "강북": 8121,
      "사채": 8122,
      "알고리즘": 8123,
      "##키스탄": 8124,
      "##가루": 8125,
      "엄청나": 8126,
      "동국": 8127,
      "노동당": 8128,
      "스페이스": 8129,
      "미뤄": 8130,
      "더군요": 8131,
      "엑스포": 8132,
      "코미디": 8133,
      "##컨대": 8134,
      "유독": 8135,
      "과실": 8136,
      "리드": 8137,
      "감염병": 8138,
      "##몬드": 8139,
      "잠수": 8140,
      "안방": 8141,
      "결혼식": 8142,
      "PMI": 8143,
      "##와서": 8144,
      "##퀘어": 8145,
      "유가족": 8146,
      "##릅니다": 8147,
      "세탁기": 8148,
      "네오": 8149,
      "야생": 8150,
      "자립": 8151,
      "정교": 8152,
      "해결책": 8153,
      "kbs": 8154,
      "폭넓": 8155,
      "어둠": 8156,
      "태어났": 8157,
      "쿠키": 8158,
      "산소": 8159,
      "얽": 8160,
      "뚝": 8161,
      "##IN": 8162,
      "군부": 8163,
      "SW": 8164,
      "털어": 8165,
      "돌아보": 8166,
      "장인": 8167,
      "##월드": 8168,
      "##ood": 8169,
      "사면": 8170,
      "실증": 8171,
      "##드리": 8172,
      "다지": 8173,
      "성별": 8174,
      "페르": 8175,
      "어업": 8176,
      "IBK": 8177,
      "공판": 8178,
      "방송사": 8179,
      "현명": 8180,
      "김병": 8181,
      "명문": 8182,
      "보건복지부": 8183,
      "간호사": 8184,
      "##데스": 8185,
      "서면": 8186,
      "##페이스": 8187,
      "배수": 8188,
      "견고": 8189,
      "저렇": 8190,
      "걸림": 8191,
      "거라": 8192,
      "법칙": 8193,
      "연재": 8194,
      "빈곤": 8195,
      "나타난다": 8196,
      "쓴다": 8197,
      "면밀": 8198,
      "머신": 8199,
      "소극": 8200,
      "전도": 8201,
      "브루": 8202,
      "분해": 8203,
      "알루미늄": 8204,
      "유포": 8205,
      "전염병": 8206,
      "외무": 8207,
      "레버리지": 8208,
      "폐업": 8209,
      "오락": 8210,
      "아크": 8211,
      "삭스": 8212,
      "저지른": 8213,
      "잼": 8214,
      "흡연": 8215,
      "길래": 8216,
      "여섯": 8217,
      "개조": 8218,
      "플래시": 8219,
      "##65": 8220,
      "끈다": 8221,
      "특강": 8222,
      "성취": 8223,
      "간섭": 8224,
      "아가리": 8225,
      "자매": 8226,
      "동포": 8227,
      "서기": 8228,
      "1992": 8229,
      "한경": 8230,
      "온다": 8231,
      "전경련": 8232,
      "스테이트": 8233,
      "##사업": 8234,
      "동북아": 8235,
      "##32": 8236,
      "원회": 8237,
      "드린다": 8238,
      "##스트리트": 8239,
      "사주": 8240,
      "퍼지": 8241,
      "##ech": 8242,
      "김수": 8243,
      "산지": 8244,
      "실수요자": 8245,
      "괴물": 8246,
      "##무기": 8247,
      "김장": 8248,
      "소용": 8249,
      "데미지": 8250,
      "새기": 8251,
      "Pl": 8252,
      "##기구": 8253,
      "신비": 8254,
      "##ev": 8255,
      "중증": 8256,
      "한자": 8257,
      "치러": 8258,
      "미얀": 8259,
      "어선": 8260,
      "변환": 8261,
      "퇴근": 8262,
      "흑인": 8263,
      "부드럽": 8264,
      "감사원": 8265,
      "미스": 8266,
      "신생": 8267,
      "문건": 8268,
      "##현실": 8269,
      "바깥": 8270,
      "보석": 8271,
      "키움증권": 8272,
      "관내": 8273,
      "오스": 8274,
      "DRAM": 8275,
      "피스": 8276,
      "올라오": 8277,
      "역학": 8278,
      "치아": 8279,
      "월스트리트": 8280,
      "초고": 8281,
      "주저": 8282,
      "불신": 8283,
      "국비": 8284,
      "목표치": 8285,
      "쏟아지": 8286,
      "아르헨": 8287,
      "소각": 8288,
      "레이스": 8289,
      "이낙": 8290,
      "고작": 8291,
      "가죽": 8292,
      "현대건설": 8293,
      "결단": 8294,
      "윤미": 8295,
      "자위": 8296,
      "##집니다": 8297,
      "으려면": 8298,
      "오만": 8299,
      "수성": 8300,
      "초콜": 8301,
      "정답": 8302,
      "아르헨티나": 8303,
      "텍스": 8304,
      "일기": 8305,
      "안산": 8306,
      "니즈": 8307,
      "치과": 8308,
      "빌리": 8309,
      "##베이터": 8310,
      "다짐": 8311,
      "타점": 8312,
      "원단": 8313,
      "무제": 8314,
      "가파른": 8315,
      "해변": 8316,
      "썸": 8317,
      "체류": 8318,
      "로직스": 8319,
      "재화": 8320,
      "CF": 8321,
      "주공": 8322,
      "고쳐": 8323,
      "##자원": 8324,
      "1960": 8325,
      "부담금": 8326,
      "비유": 8327,
      "댐": 8328,
      "신념": 8329,
      "미팅": 8330,
      "지원자": 8331,
      "짐승": 8332,
      "캠핑": 8333,
      "솜": 8334,
      "주권": 8335,
      "관심사": 8336,
      "임대차": 8337,
      "마구": 8338,
      "미주": 8339,
      "한숨": 8340,
      "대역": 8341,
      "권유": 8342,
      "이길": 8343,
      "여름철": 8344,
      "##ps": 8345,
      "프라임": 8346,
      "##34": 8347,
      "마사지": 8348,
      "답니다": 8349,
      "고품": 8350,
      "분과": 8351,
      "내면": 8352,
      "북측": 8353,
      "인명": 8354,
      "해운대": 8355,
      "해봐": 8356,
      "시카고": 8357,
      "##느님": 8358,
      "파고": 8359,
      "패치": 8360,
      "광복": 8361,
      "늘렸": 8362,
      "##SI": 8363,
      "성범죄": 8364,
      "변이": 8365,
      "조중동": 8366,
      "결함": 8367,
      "UN": 8368,
      "이뤄지고": 8369,
      "뻗": 8370,
      "스피드": 8371,
      "##ance": 8372,
      "##사이": 8373,
      "마누": 8374,
      "소금": 8375,
      "ch": 8376,
      "침략": 8377,
      "미드": 8378,
      "##저우": 8379,
      "포상": 8380,
      "朴": 8381,
      "해피": 8382,
      "로켓": 8383,
      "주먹": 8384,
      "더구나": 8385,
      "마산": 8386,
      "후퇴": 8387,
      "하느님": 8388,
      "학계": 8389,
      "드물": 8390,
      "정신병자": 8391,
      "개학": 8392,
      "꺼져": 8393,
      "##지대": 8394,
      "지형": 8395,
      "줄어드": 8396,
      "머물렀": 8397,
      "미스터": 8398,
      "명소": 8399,
      "풀리": 8400,
      "일회성": 8401,
      "##법인": 8402,
      "첨가": 8403,
      "시달리": 8404,
      "##ock": 8405,
      "##19": 8406,
      "표지": 8407,
      "관계없이": 8408,
      "오페": 8409,
      "##관위": 8410,
      "계승": 8411,
      "코엑스": 8412,
      "주시": 8413,
      "감염자": 8414,
      "천국": 8415,
      "발병": 8416,
      "##아라": 8417,
      "됐으나": 8418,
      "버거": 8419,
      "##차례": 8420,
      "##두르": 8421,
      "스러워": 8422,
      "모양새": 8423,
      "면은": 8424,
      "연비": 8425,
      "128": 8426,
      "발령": 8427,
      "놓여": 8428,
      "쫄": 8429,
      "곡물": 8430,
      "청정기": 8431,
      "키스": 8432,
      "천연가스": 8433,
      "공로": 8434,
      "사이비": 8435,
      "덩어리": 8436,
      "분량": 8437,
      "동아리": 8438,
      "명동": 8439,
      "테크노": 8440,
      "캐시": 8441,
      "청렴": 8442,
      "생산자": 8443,
      "파란": 8444,
      "나이트": 8445,
      "해설": 8446,
      "##드라": 8447,
      "##광역시": 8448,
      "도요타": 8449,
      "디바이스": 8450,
      "바지": 8451,
      "##고속도로": 8452,
      "자빠졌": 8453,
      "##혜원": 8454,
      "유감": 8455,
      "모험": 8456,
      "신영": 8457,
      "고액": 8458,
      "후진": 8459,
      "지체": 8460,
      "新": 8461,
      "LPG": 8462,
      "써서": 8463,
      "종일": 8464,
      "오너": 8465,
      "쩝": 8466,
      "1993": 8467,
      "##케미": 8468,
      "갈아": 8469,
      "미아": 8470,
      "순익": 8471,
      "투신": 8472,
      "예탁": 8473,
      "##빨리": 8474,
      "##합니다": 8475,
      "쏠리": 8476,
      "웅진": 8477,
      "##ss": 8478,
      "기념식": 8479,
      "해외여행": 8480,
      "프레스": 8481,
      "스파이": 8482,
      "애비": 8483,
      "장성": 8484,
      "##테일": 8485,
      "Ar": 8486,
      "수료": 8487,
      "서술": 8488,
      "취미": 8489,
      "납세": 8490,
      "투데이": 8491,
      "풋": 8492,
      "비로": 8493,
      "모순": 8494,
      "상관없": 8495,
      "##ult": 8496,
      "약하": 8497,
      "증폭": 8498,
      "보좌관": 8499,
      "동쪽": 8500,
      "리니": 8501,
      "##eg": 8502,
      "##ind": 8503,
      "뱀": 8504,
      "##qu": 8505,
      "##렉트": 8506,
      "##바이트": 8507,
      "육상": 8508,
      "복용": 8509,
      "이낙연": 8510,
      "ᄆ": 8511,
      "장갑": 8512,
      "##클로": 8513,
      "판로": 8514,
      "이딴": 8515,
      "대국민": 8516,
      "봐서": 8517,
      "##15": 8518,
      "MP": 8519,
      "추미": 8520,
      "서쪽": 8521,
      "남긴": 8522,
      "기호": 8523,
      "엄중": 8524,
      "메이커": 8525,
      "재밌": 8526,
      "##치기": 8527,
      "정관": 8528,
      "##도어": 8529,
      "잡혀": 8530,
      "어두운": 8531,
      "벡": 8532,
      "정해진": 8533,
      "한남": 8534,
      "샐": 8535,
      "기다려": 8536,
      "안동": 8537,
      "달린": 8538,
      "오랜만": 8539,
      "체납": 8540,
      "##천군": 8541,
      "사이드": 8542,
      "산단": 8543,
      "버블": 8544,
      "부를": 8545,
      "##든지": 8546,
      "살균": 8547,
      "독립운동": 8548,
      "맛집": 8549,
      "##DB": 8550,
      "출현": 8551,
      "##ign": 8552,
      "보험업": 8553,
      "##셔리": 8554,
      "럭셔리": 8555,
      "복음": 8556,
      "##RO": 8557,
      "배웠": 8558,
      "박탈": 8559,
      "봐요": 8560,
      "대접": 8561,
      "데모": 8562,
      "메탈": 8563,
      "필립": 8564,
      "역설": 8565,
      "이견": 8566,
      "##비드": 8567,
      "저게": 8568,
      "특파": 8569,
      "감찰": 8570,
      "추방": 8571,
      "##벤션": 8572,
      "##our": 8573,
      "##RT": 8574,
      "외국어": 8575,
      "KTX": 8576,
      "NY": 8577,
      "학업": 8578,
      "자네": 8579,
      "규격": 8580,
      "생리": 8581,
      "과시": 8582,
      "목재": 8583,
      "밑돌": 8584,
      "근절": 8585,
      "빛나": 8586,
      "가르쳐": 8587,
      "육체": 8588,
      "##스팅": 8589,
      "정수기": 8590,
      "##가운": 8591,
      "줄였": 8592,
      "학살": 8593,
      "으리": 8594,
      "환산": 8595,
      "1988": 8596,
      "바쁘": 8597,
      "활기": 8598,
      "보호법": 8599,
      "북구": 8600,
      "펑": 8601,
      "##셔츠": 8602,
      "강렬": 8603,
      "전광": 8604,
      "스퀘어": 8605,
      "베어": 8606,
      "DA": 8607,
      "조업": 8608,
      "이병": 8609,
      "껍": 8610,
      "환불": 8611,
      "오리지널": 8612,
      "루트": 8613,
      "초콜릿": 8614,
      "##HO": 8615,
      "등산": 8616,
      "특파원": 8617,
      "갑작스": 8618,
      "알렸": 8619,
      "창문": 8620,
      "##53": 8621,
      "아름다움": 8622,
      "##ail": 8623,
      "유류": 8624,
      "적시": 8625,
      "배틀": 8626,
      "참모": 8627,
      "일수록": 8628,
      "컨벤션": 8629,
      "무덤": 8630,
      "三": 8631,
      "##제표": 8632,
      "장단": 8633,
      "고치": 8634,
      "보건소": 8635,
      "사라진": 8636,
      "뒤지": 8637,
      "재무제표": 8638,
      "브라운": 8639,
      "##어날": 8640,
      "시설물": 8641,
      "##케미칼": 8642,
      "전임": 8643,
      "재테크": 8644,
      "##높이": 8645,
      "속속": 8646,
      "##75": 8647,
      "아키": 8648,
      "셜": 8649,
      "보충": 8650,
      "팁": 8651,
      "피아노": 8652,
      "누나": 8653,
      "최대치": 8654,
      "공감대": 8655,
      "바닷": 8656,
      "국영": 8657,
      "##놀이": 8658,
      "230": 8659,
      "유보": 8660,
      "을수록": 8661,
      "부른다": 8662,
      "속한": 8663,
      "무언가": 8664,
      "조류": 8665,
      "제치": 8666,
      "비수기": 8667,
      "##스크림": 8668,
      "DM": 8669,
      "##하나": 8670,
      "미얀마": 8671,
      "그림자": 8672,
      "쇼크": 8673,
      "뷔": 8674,
      "김학": 8675,
      "##74": 8676,
      "일러": 8677,
      "천주": 8678,
      "전처": 8679,
      "188": 8680,
      "타이밍": 8681,
      "##셀러": 8682,
      "동지": 8683,
      "감기": 8684,
      "랍": 8685,
      "어째": 8686,
      "옥수수": 8687,
      "구두": 8688,
      "항체": 8689,
      "시공사": 8690,
      "입주민": 8691,
      "세입자": 8692,
      "미개": 8693,
      "변함": 8694,
      "##임스": 8695,
      "WSJ": 8696,
      "##학자": 8697,
      "찾아내": 8698,
      "팔아먹": 8699,
      "##크로": 8700,
      "관념": 8701,
      "UA": 8702,
      "다녔": 8703,
      "연산": 8704,
      "조망": 8705,
      "##퇴근": 8706,
      "##TC": 8707,
      "거제": 8708,
      "南": 8709,
      "1991": 8710,
      "돋보이": 8711,
      "제작진": 8712,
      "텍스트": 8713,
      "궤도": 8714,
      "꽉": 8715,
      "꾸며": 8716,
      "얹": 8717,
      "학년도": 8718,
      "돌봄": 8719,
      "혈관": 8720,
      "전교조": 8721,
      "##러스터": 8722,
      "가늠": 8723,
      "사령관": 8724,
      "대내외": 8725,
      "리튬": 8726,
      "삽입": 8727,
      "내륙": 8728,
      "성매매": 8729,
      "골드만": 8730,
      "##DR": 8731,
      "클로": 8732,
      "이야말로": 8733,
      "로열": 8734,
      "테크놀로지": 8735,
      "PF": 8736,
      "다이아": 8737,
      "망해": 8738,
      "양질": 8739,
      "진중권": 8740,
      "꼼수": 8741,
      "현대증권": 8742,
      "벌인": 8743,
      "수출액": 8744,
      "할당": 8745,
      "새겨": 8746,
      "사죄": 8747,
      "##pp": 8748,
      "트라": 8749,
      "고양시": 8750,
      "외출": 8751,
      "아이디": 8752,
      "미성": 8753,
      "에버": 8754,
      "예보": 8755,
      "휴양": 8756,
      "석사": 8757,
      "우즈": 8758,
      "구해": 8759,
      "##슬러": 8760,
      "상한가": 8761,
      "살림": 8762,
      "초월": 8763,
      "아이스크림": 8764,
      "윤미향": 8765,
      "입주자": 8766,
      "한라": 8767,
      "침몰": 8768,
      "기성": 8769,
      "소신": 8770,
      "였을": 8771,
      "김지": 8772,
      "카르": 8773,
      "위임": 8774,
      "##ens": 8775,
      "클러스터": 8776,
      "대용": 8777,
      "토로": 8778,
      "주머니": 8779,
      "워킹": 8780,
      "무난": 8781,
      "실전": 8782,
      "김민": 8783,
      "열매": 8784,
      "챌": 8785,
      "경찰관": 8786,
      "mbc": 8787,
      "오페라": 8788,
      "750": 8789,
      "Ex": 8790,
      "잉글": 8791,
      "뜨겁": 8792,
      "대충": 8793,
      "앰": 8794,
      "감산": 8795,
      "가톨릭": 8796,
      "경부": 8797,
      "책상": 8798,
      "넘쳐": 8799,
      "IF": 8800,
      "Th": 8801,
      "남구": 8802,
      "발탁": 8803,
      "엽": 8804,
      "##타르": 8805,
      "FRB": 8806,
      "연소": 8807,
      "약식": 8808,
      "사용량": 8809,
      "끼치": 8810,
      "1987": 8811,
      "EB": 8812,
      "국군": 8813,
      "든든": 8814,
      "짐작": 8815,
      "화이팅": 8816,
      "연임": 8817,
      "원수": 8818,
      "단절": 8819,
      "공평": 8820,
      "줄줄이": 8821,
      "테라": 8822,
      "화보": 8823,
      "실버": 8824,
      "##자치": 8825,
      "낡": 8826,
      "##pt": 8827,
      "##러드": 8828,
      "금품": 8829,
      "효능": 8830,
      "비극": 8831,
      "대면": 8832,
      "으러": 8833,
      "사리": 8834,
      "방산": 8835,
      "질의": 8836,
      "남미": 8837,
      "전진": 8838,
      "청취": 8839,
      "윌리": 8840,
      "##ey": 8841,
      "IR": 8842,
      "광부": 8843,
      "유니클로": 8844,
      "##25": 8845,
      "열악": 8846,
      "##18": 8847,
      "BN": 8848,
      "중심지": 8849,
      "희생자": 8850,
      "##허가": 8851,
      "시켜서": 8852,
      "요새": 8853,
      "##에스": 8854,
      "엎": 8855,
      "com": 8856,
      "펫": 8857,
      "뻥": 8858,
      "아깝": 8859,
      "아사": 8860,
      "듀얼": 8861,
      "##오프": 8862,
      "귀하": 8863,
      "JP": 8864,
      "디즈": 8865,
      "아세안": 8866,
      "지문": 8867,
      "원산": 8868,
      "엘리베이터": 8869,
      "소홀": 8870,
      "출퇴근": 8871,
      "경호": 8872,
      "전락": 8873,
      "킬로미터": 8874,
      "이색": 8875,
      "강구": 8876,
      "직권": 8877,
      "포르투": 8878,
      "소나": 8879,
      "1300": 8880,
      "동종": 8881,
      "지갑": 8882,
      "안녕": 8883,
      "##36": 8884,
      "운동장": 8885,
      "성남시": 8886,
      "벌여": 8887,
      "세로": 8888,
      "##레이터": 8889,
      "주역": 8890,
      "수차례": 8891,
      "양도세": 8892,
      "거울": 8893,
      "형평": 8894,
      "액수": 8895,
      "이뤘": 8896,
      "사도": 8897,
      "##co": 8898,
      "몹": 8899,
      "기숙": 8900,
      "겨울철": 8901,
      "연패": 8902,
      "마찰": 8903,
      "권장": 8904,
      "뽀": 8905,
      "##바람": 8906,
      "양육": 8907,
      "곡선": 8908,
      "각지": 8909,
      "욕먹": 8910,
      "통신망": 8911,
      "아연": 8912,
      "개미": 8913,
      "##면적": 8914,
      "웨딩": 8915,
      "함정": 8916,
      "호실": 8917,
      "유무": 8918,
      "치를": 8919,
      "##are": 8920,
      "특가": 8921,
      "여행객": 8922,
      "광물": 8923,
      "안착": 8924,
      "날려": 8925,
      "끌어올리": 8926,
      "자유민주": 8927,
      "태그": 8928,
      "호르": 8929,
      "사임": 8930,
      "제임스": 8931,
      "##ge": 8932,
      "톰": 8933,
      "적대": 8934,
      "섰": 8935,
      "##시험": 8936,
      "섹스": 8937,
      "취할": 8938,
      "is": 8939,
      "당선자": 8940,
      "주름": 8941,
      "자민": 8942,
      "배울": 8943,
      "시립": 8944,
      "그칠": 8945,
      "##발전": 8946,
      "이듬": 8947,
      "화해": 8948,
      "##공항": 8949,
      "##LA": 8950,
      "PS": 8951,
      "과다": 8952,
      "##31": 8953,
      "OPEC": 8954,
      "블라": 8955,
      "225": 8956,
      "문가": 8957,
      "각광": 8958,
      "하방": 8959,
      "스란": 8960,
      "밀착": 8961,
      "스캔": 8962,
      "터져": 8963,
      "알코": 8964,
      "유방": 8965,
      "##일으": 8966,
      "걸맞": 8967,
      "제동": 8968,
      "핸드폰": 8969,
      "조선업": 8970,
      "다는데": 8971,
      "까닭": 8972,
      "##다지": 8973,
      "불러일으": 8974,
      "베이비": 8975,
      "초록": 8976,
      "추미애": 8977,
      "놀이터": 8978,
      "음모": 8979,
      "제압": 8980,
      "텔레비전": 8981,
      "별명": 8982,
      "톡톡": 8983,
      "그니까": 8984,
      "보너스": 8985,
      "마이클": 8986,
      "法": 8987,
      "전차": 8988,
      "겹치": 8989,
      "득표": 8990,
      "증서": 8991,
      "##76": 8992,
      "염려": 8993,
      "환수": 8994,
      "과반": 8995,
      "현대제철": 8996,
      "김정일": 8997,
      "##45": 8998,
      "##이치": 8999,
      "금전": 9000,
      "##걸음": 9001,
      "경사": 9002,
      "스와": 9003,
      "줍니다": 9004,
      "성질": 9005,
      "최장": 9006,
      "진압": 9007,
      "다크": 9008,
      "수법": 9009,
      "우체": 9010,
      "탐구": 9011,
      "118": 9012,
      "침투": 9013,
      "##거래소": 9014,
      "납치": 9015,
      "##저스": 9016,
      "레딧": 9017,
      "여행사": 9018,
      "상쇄": 9019,
      "##바겐": 9020,
      "1600": 9021,
      "하우": 9022,
      "장병": 9023,
      "화두": 9024,
      "Buy": 9025,
      "더라고요": 9026,
      "210": 9027,
      "체중": 9028,
      "ic": 9029,
      "유적": 9030,
      "FT": 9031,
      "통로": 9032,
      "子": 9033,
      "정직": 9034,
      "form": 9035,
      "합니까": 9036,
      "틀림": 9037,
      "파급": 9038,
      "##오르": 9039,
      "타깃": 9040,
      "강자": 9041,
      "##플릭스": 9042,
      "넷플릭스": 9043,
      "##쟁이": 9044,
      "언스": 9045,
      "악영향": 9046,
      "폭스바겐": 9047,
      "전셋": 9048,
      "기장": 9049,
      "##키아": 9050,
      "발라": 9051,
      "사거리": 9052,
      "조현": 9053,
      "이원": 9054,
      "모티브": 9055,
      "위력": 9056,
      "크레": 9057,
      "가액": 9058,
      "답했": 9059,
      "모의": 9060,
      "결과물": 9061,
      "기체": 9062,
      "이경": 9063,
      "기하": 9064,
      "빌라": 9065,
      "교부": 9066,
      "여가": 9067,
      "해져": 9068,
      "리터": 9069,
      "수제": 9070,
      "경연": 9071,
      "주고": 9072,
      "하도급": 9073,
      "이듬해": 9074,
      "불꽃": 9075,
      "고등학생": 9076,
      "귀여": 9077,
      "DC": 9078,
      "세균": 9079,
      "열려": 9080,
      "장마": 9081,
      "삼국": 9082,
      "진정한": 9083,
      "116": 9084,
      "하남": 9085,
      "넥슨": 9086,
      "다시피": 9087,
      "가져오": 9088,
      "걸림돌": 9089,
      "On": 9090,
      "물타기": 9091,
      "장외": 9092,
      "휴일": 9093,
      "베를": 9094,
      "볶": 9095,
      "농심": 9096,
      "SO": 9097,
      "1800": 9098,
      "수영장": 9099,
      "수원시": 9100,
      "살피": 9101,
      "땡": 9102,
      "독재자": 9103,
      "모씨": 9104,
      "기울여": 9105,
      "제정신": 9106,
      "##니스트": 9107,
      "오렌": 9108,
      "음주운전": 9109,
      "센트럴": 9110,
      "하이트": 9111,
      "폭로": 9112,
      "##존스": 9113,
      "재판소": 9114,
      "모자라": 9115,
      "정시": 9116,
      "품종": 9117,
      "아웃도어": 9118,
      "뱃": 9119,
      "간신": 9120,
      "종업": 9121,
      "##자재": 9122,
      "##신저": 9123,
      "본토": 9124,
      "민영화": 9125,
      "##저트": 9126,
      "연승": 9127,
      "연기금": 9128,
      "한중": 9129,
      "##26": 9130,
      "##ans": 9131,
      "독감": 9132,
      "##11": 9133,
      "스톱": 9134,
      "채팅": 9135,
      "##ber": 9136,
      "유성": 9137,
      "이뤄지는": 9138,
      "서둘러": 9139,
      "하얀": 9140,
      "사막": 9141,
      "끔찍": 9142,
      "탐색": 9143,
      "맙": 9144,
      "수질": 9145,
      "할수록": 9146,
      "저지르": 9147,
      "검정": 9148,
      "영주": 9149,
      "##페이": 9150,
      "모조리": 9151,
      "넥스": 9152,
      "발상": 9153,
      "기동": 9154,
      "초보": 9155,
      "우아": 9156,
      "무주택": 9157,
      "##적으로": 9158,
      "아미": 9159,
      "코노": 9160,
      "부러": 9161,
      "경색": 9162,
      "딸기": 9163,
      "국유": 9164,
      "배추": 9165,
      "끌어들": 9166,
      "티셔츠": 9167,
      "입소": 9168,
      "중량": 9169,
      "##엘라": 9170,
      "##ide": 9171,
      "##yr": 9172,
      "NHN": 9173,
      "1400": 9174,
      "드렸": 9175,
      "틀린": 9176,
      "수칙": 9177,
      "거실": 9178,
      "가축": 9179,
      "입체": 9180,
      "토끼": 9181,
      "월평균": 9182,
      "추위": 9183,
      "수구": 9184,
      "##금융": 9185,
      "성금": 9186,
      "석방": 9187,
      "아쉬운": 9188,
      "브레이크": 9189,
      "쟤": 9190,
      "드러난": 9191,
      "어떨까": 9192,
      "둘러보": 9193,
      "뽐": 9194,
      "케이크": 9195,
      "예컨대": 9196,
      "연루": 9197,
      "월요일": 9198,
      "일조": 9199,
      "비닐": 9200,
      "쭉": 9201,
      "특구": 9202,
      "헨": 9203,
      "CCTV": 9204,
      "예년": 9205,
      "135": 9206,
      "DNA": 9207,
      "외관": 9208,
      "코레": 9209,
      "##유산": 9210,
      "다우존스": 9211,
      "흩": 9212,
      "박성": 9213,
      "탐사": 9214,
      "영문": 9215,
      "이송": 9216,
      "##GB": 9217,
      "슬픔": 9218,
      "출판사": 9219,
      "핵무기": 9220,
      "흥분": 9221,
      "교도소": 9222,
      "지장": 9223,
      "보이스": 9224,
      "눈높이": 9225,
      "신조": 9226,
      "두께": 9227,
      "th": 9228,
      "첩": 9229,
      "낸드": 9230,
      "발음": 9231,
      "차선": 9232,
      "Cap": 9233,
      "합격자": 9234,
      "절망": 9235,
      "##식간": 9236,
      "pt": 9237,
      "문정부": 9238,
      "수납": 9239,
      "하천": 9240,
      "고령화": 9241,
      "챌린": 9242,
      "바꿨": 9243,
      "군데": 9244,
      "강아지": 9245,
      "가져다": 9246,
      "통일부": 9247,
      "맞대": 9248,
      "社": 9249,
      "입술": 9250,
      "지껄": 9251,
      "막상": 9252,
      "침입": 9253,
      "수목": 9254,
      "아이콘": 9255,
      "모리": 9256,
      "변호인": 9257,
      "썰": 9258,
      "눈빛": 9259,
      "윈도우": 9260,
      "ᅢ": 9261,
      "아니하": 9262,
      "왕자": 9263,
      "노스": 9264,
      "다큐": 9265,
      "구사": 9266,
      "데이트": 9267,
      "식이": 9268,
      "##HD": 9269,
      "쳐다보": 9270,
      "크라": 9271,
      "동문": 9272,
      "시속": 9273,
      "농축": 9274,
      "##old": 9275,
      "관망": 9276,
      "담합": 9277,
      "나눈": 9278,
      "일련": 9279,
      "여타": 9280,
      "##ula": 9281,
      "판타": 9282,
      "홍어": 9283,
      "스프링": 9284,
      "1989": 9285,
      "비결": 9286,
      "참전": 9287,
      "발레": 9288,
      "수거": 9289,
      "##17": 9290,
      "선명": 9291,
      "타협": 9292,
      "음식료": 9293,
      "분자": 9294,
      "냉각": 9295,
      "동조": 9296,
      "다닌": 9297,
      "저해": 9298,
      "마력": 9299,
      "농어촌": 9300,
      "연료전지": 9301,
      "라기": 9302,
      "오렌지": 9303,
      "자책": 9304,
      "경상도": 9305,
      "AM": 9306,
      "시야": 9307,
      "롬": 9308,
      "승강": 9309,
      "독려": 9310,
      "통신부": 9311,
      "경감": 9312,
      "라운": 9313,
      "양념": 9314,
      "##28": 9315,
      "방출": 9316,
      "시끄": 9317,
      "퇴진": 9318,
      "선관위": 9319,
      "존나": 9320,
      "슬라이": 9321,
      "과자": 9322,
      "일으켰": 9323,
      "##수산부": 9324,
      "북괴": 9325,
      "달라진": 9326,
      "각별": 9327,
      "##블리": 9328,
      "입자": 9329,
      "디저트": 9330,
      "##운서": 9331,
      "매칭": 9332,
      "##그라": 9333,
      "워크숍": 9334,
      "서방": 9335,
      "대구경": 9336,
      "손혜원": 9337,
      "교재": 9338,
      "주둥": 9339,
      "실업자": 9340,
      "진도": 9341,
      "##48": 9342,
      "CU": 9343,
      "해선": 9344,
      "죽인": 9345,
      "김제": 9346,
      "종업원": 9347,
      "집착": 9348,
      "의제": 9349,
      "내밀": 9350,
      "아나운서": 9351,
      "민자": 9352,
      "지성": 9353,
      "배급": 9354,
      "##베이스": 9355,
      "자유민주주의": 9356,
      "사이언스": 9357,
      "##라이트": 9358,
      "삼진": 9359,
      "수련": 9360,
      "천하": 9361,
      "스테이지": 9362,
      "다닐": 9363,
      "쉼": 9364,
      "노원": 9365,
      "에디션": 9366,
      "##거지": 9367,
      "국책": 9368,
      "등록금": 9369,
      "지우": 9370,
      "KE": 9371,
      "동성애": 9372,
      "前": 9373,
      "오사카": 9374,
      "난방": 9375,
      "매립": 9376,
      "##협회": 9377,
      "소아": 9378,
      "HP": 9379,
      "박상": 9380,
      "##ork": 9381,
      "상부": 9382,
      "기업가": 9383,
      "요법": 9384,
      "의결권": 9385,
      "모욕": 9386,
      "쩝쩝": 9387,
      "##23": 9388,
      "군민": 9389,
      "갭": 9390,
      "TS": 9391,
      "떠올랐": 9392,
      "상점": 9393,
      "향기": 9394,
      "눌러": 9395,
      "공문": 9396,
      "de": 9397,
      "상하이": 9398,
      "천문": 9399,
      "순식간": 9400,
      "이인": 9401,
      "예술가": 9402,
      "##ical": 9403,
      "관중": 9404,
      "휴직": 9405,
      "전셋값": 9406,
      "처한": 9407,
      "팍": 9408,
      "자본금": 9409,
      "##패드": 9410,
      "스코어": 9411,
      "기세": 9412,
      "호흡기": 9413,
      "종식": 9414,
      "국감": 9415,
      "튼튼": 9416,
      "對": 9417,
      "표본": 9418,
      "암살": 9419,
      "팟": 9420,
      "con": 9421,
      "악기": 9422,
      "한시": 9423,
      "sh": 9424,
      "3500": 9425,
      "##64": 9426,
      "도어": 9427,
      "##느리": 9428,
      "##ace": 9429,
      "맞물려": 9430,
      "증후": 9431,
      "이스트": 9432,
      "금강산": 9433,
      "New": 9434,
      "일일": 9435,
      "주상": 9436,
      "제작사": 9437,
      "의대": 9438,
      "제네시스": 9439,
      "유물": 9440,
      "조롱": 9441,
      "만세": 9442,
      "물고기": 9443,
      "메신저": 9444,
      "리뉴": 9445,
      "국제공항": 9446,
      "##ik": 9447,
      "릭": 9448,
      "자유당": 9449,
      "##로우": 9450,
      "유혹": 9451,
      "##79": 9452,
      "강국": 9453,
      "이룰": 9454,
      "시드": 9455,
      "##어내": 9456,
      "공소": 9457,
      "꺼리": 9458,
      "임차인": 9459,
      "내걸": 9460,
      "선수단": 9461,
      "물결": 9462,
      "시마": 9463,
      "스승": 9464,
      "포르투갈": 9465,
      "직영": 9466,
      "##72": 9467,
      "비로소": 9468,
      "대검": 9469,
      "펼칠": 9470,
      "그만두": 9471,
      "그다지": 9472,
      "소식통": 9473,
      "토토": 9474,
      "동반성": 9475,
      "앵커": 9476,
      "이쪽": 9477,
      "##어져": 9478,
      "감방": 9479,
      "파인": 9480,
      "전복": 9481,
      "연안": 9482,
      "바뀔": 9483,
      "꼬집": 9484,
      "올리브": 9485,
      "지붕": 9486,
      "오리온": 9487,
      "##니즘": 9488,
      "떠올리": 9489,
      "평일": 9490,
      "산화": 9491,
      "파탄": 9492,
      "평면": 9493,
      "열람": 9494,
      "지켜야": 9495,
      "종족": 9496,
      "##유예": 9497,
      "식별": 9498,
      "여고": 9499,
      "##배우": 9500,
      "퍼스트": 9501,
      "투여": 9502,
      "우상": 9503,
      "연구자": 9504,
      "자택": 9505,
      "지나친": 9506,
      "동아시아": 9507,
      "터진": 9508,
      "스톡": 9509,
      "베타": 9510,
      "이산화": 9511,
      "강변": 9512,
      "##티지": 9513,
      "리포트": 9514,
      "찾아볼": 9515,
      "느냐고": 9516,
      "##39": 9517,
      "우습": 9518,
      "알뜰": 9519,
      "##ord": 9520,
      "ML": 9521,
      "보컬": 9522,
      "좌절": 9523,
      "매직": 9524,
      "마녀": 9525,
      "부끄러": 9526,
      "##철도": 9527,
      "채취": 9528,
      "사라져": 9529,
      "호기심": 9530,
      "쿼터": 9531,
      "캐주얼": 9532,
      "넘겼": 9533,
      "클린턴": 9534,
      "이해찬": 9535,
      "트레이드": 9536,
      "故": 9537,
      "##위원회": 9538,
      "마늘": 9539,
      "무거운": 9540,
      "선원": 9541,
      "MD": 9542,
      "딥": 9543,
      "자르": 9544,
      "찐": 9545,
      "부수": 9546,
      "Top": 9547,
      "식구": 9548,
      "특집": 9549,
      "특권": 9550,
      "방통": 9551,
      "저주": 9552,
      "간식": 9553,
      "잃어버": 9554,
      "비비": 9555,
      "##마켓": 9556,
      "여왕": 9557,
      "원형": 9558,
      "기피": 9559,
      "말라": 9560,
      "주고받": 9561,
      "재선": 9562,
      "김연": 9563,
      "신나": 9564,
      "정립": 9565,
      "##센스": 9566,
      "##49": 9567,
      "자수": 9568,
      "유흥": 9569,
      "수고": 9570,
      "어리석": 9571,
      "피크": 9572,
      "취해": 9573,
      "누굴": 9574,
      "##재단": 9575,
      "밀러": 9576,
      "##커스": 9577,
      "조선소": 9578,
      "##처분": 9579,
      "##옵니다": 9580,
      "견본": 9581,
      "##광석": 9582,
      "욱": 9583,
      "모터스": 9584,
      "렌탈": 9585,
      "조카": 9586,
      "일일이": 9587,
      "가세": 9588,
      "차등": 9589,
      "만점": 9590,
      "국외": 9591,
      "##OP": 9592,
      "가파르": 9593,
      "메달": 9594,
      "멀쩡": 9595,
      "##ence": 9596,
      "항구": 9597,
      "샴": 9598,
      "백제": 9599,
      "잣대": 9600,
      "보훈": 9601,
      "##토록": 9602,
      "행운": 9603,
      "##44": 9604,
      "한결": 9605,
      "촉발": 9606,
      "증후군": 9607,
      "##ly": 9608,
      "관하": 9609,
      "알렉": 9610,
      "##뜨렸": 9611,
      "일본어": 9612,
      "함량": 9613,
      "실감": 9614,
      "고로": 9615,
      "비추": 9616,
      "ᄊ": 9617,
      "겐": 9618,
      "논평": 9619,
      "SP": 9620,
      "증명서": 9621,
      "종결": 9622,
      "부끄러운": 9623,
      "동선": 9624,
      "헝가리": 9625,
      "라임": 9626,
      "FDA": 9627,
      "점프": 9628,
      "##57": 9629,
      "##ax": 9630,
      "할려고": 9631,
      "충주": 9632,
      "장미": 9633,
      "파도": 9634,
      "긴장감": 9635,
      "아군": 9636,
      "국악": 9637,
      "손자": 9638,
      "반짝": 9639,
      "##수엘라": 9640,
      "등교": 9641,
      "유틸": 9642,
      "유틸리티": 9643,
      "세션": 9644,
      "나마": 9645,
      "방면": 9646,
      "그루": 9647,
      "보물": 9648,
      "마누라": 9649,
      "댕": 9650,
      "개개": 9651,
      "낮췄": 9652,
      "베네수엘라": 9653,
      "장례식": 9654,
      "이승만": 9655,
      "CI": 9656,
      "박종": 9657,
      "벙": 9658,
      "윌리엄": 9659,
      "##TT": 9660,
      "개수": 9661,
      "장부": 9662,
      "로컬": 9663,
      "파우": 9664,
      "##RI": 9665,
      "대림산업": 9666,
      "관제": 9667,
      "##41": 9668,
      "단호": 9669,
      "펀딩": 9670,
      "##란트": 9671,
      "전투기": 9672,
      "창원시": 9673,
      "해양수산부": 9674,
      "세라": 9675,
      "중개사": 9676,
      "악용": 9677,
      "270": 9678,
      "##욕장": 9679,
      "1950": 9680,
      "홍삼": 9681,
      "##리즘": 9682,
      "天": 9683,
      "지킬": 9684,
      "##78": 9685,
      "여대": 9686,
      "통영": 9687,
      "세단": 9688,
      "일으켜": 9689,
      "한식": 9690,
      "찾아오": 9691,
      "승차": 9692,
      "##BA": 9693,
      "지배력": 9694,
      "고구려": 9695,
      "##기에": 9696,
      "프렌": 9697,
      "발악": 9698,
      "가드": 9699,
      "로드맵": 9700,
      "죽일": 9701,
      "슬로건": 9702,
      "불참": 9703,
      "##68": 9704,
      "PP": 9705,
      "##ile": 9706,
      "탈당": 9707,
      "도리": 9708,
      "냅": 9709,
      "솟": 9710,
      "##95": 9711,
      "시연": 9712,
      "연면적": 9713,
      "대인": 9714,
      "320": 9715,
      "월가": 9716,
      "역동": 9717,
      "II": 9718,
      "훌쩍": 9719,
      "퀸": 9720,
      "왈": 9721,
      "미수": 9722,
      "일평균": 9723,
      "Pr": 9724,
      "사각지대": 9725,
      "정했": 9726,
      "후임": 9727,
      "온천": 9728,
      "웃도": 9729,
      "단편": 9730,
      "스미": 9731,
      "pc": 9732,
      "승점": 9733,
      "수월": 9734,
      "##근무": 9735,
      "330": 9736,
      "던졌": 9737,
      "생선": 9738,
      "im": 9739,
      "부유": 9740,
      "##까요": 9741,
      "해경": 9742,
      "마드": 9743,
      "##지르": 9744,
      "제품군": 9745,
      "1100": 9746,
      "알코올": 9747,
      "##42": 9748,
      "임용": 9749,
      "가전제품": 9750,
      "논술": 9751,
      "##던스": 9752,
      "##삼성": 9753,
      "이대로": 9754,
      "설사": 9755,
      "엔딩": 9756,
      "잔치": 9757,
      "이용객": 9758,
      "##보증": 9759,
      "이어서": 9760,
      "셰프": 9761,
      "홍수": 9762,
      "우리투자증권": 9763,
      "제주항공": 9764,
      "대피": 9765,
      "잔여": 9766,
      "내국": 9767,
      "인자": 9768,
      "복권": 9769,
      "공통점": 9770,
      "상수": 9771,
      "반란": 9772,
      "kb": 9773,
      "신뢰도": 9774,
      "투자가": 9775,
      "성당": 9776,
      "큰일": 9777,
      "오션": 9778,
      "주전": 9779,
      "알레": 9780,
      "전량": 9781,
      "우체국": 9782,
      "그놈": 9783,
      "멤버십": 9784,
      "어음": 9785,
      "대손": 9786,
      "길거리": 9787,
      "탔": 9788,
      "씽크": 9789,
      "멘탈": 9790,
      "신청자": 9791,
      "탐방": 9792,
      "으셨": 9793,
      "십자": 9794,
      "봉사자": 9795,
      "WTO": 9796,
      "냥": 9797,
      "드립": 9798,
      "펼쳐지": 9799,
      "시뮬": 9800,
      "해봐라": 9801,
      "코팅": 9802,
      "서프": 9803,
      "Ind": 9804,
      "김경수": 9805,
      "돌아갈": 9806,
      "볼넷": 9807,
      "##38": 9808,
      "브로드": 9809,
      "##37": 9810,
      "AC": 9811,
      "승무원": 9812,
      "시집": 9813,
      "맘대로": 9814,
      "재인": 9815,
      "하나하나": 9816,
      "##스레": 9817,
      "르노삼성": 9818,
      "##ix": 9819,
      "납득": 9820,
      "향수": 9821,
      "복사": 9822,
      "차주": 9823,
      "##uc": 9824,
      "Gl": 9825,
      "##코드": 9826,
      "내려놓": 9827,
      "은혜": 9828,
      "포스터": 9829,
      "베를린": 9830,
      "급성장": 9831,
      "단정": 9832,
      "대구경북": 9833,
      "십니까": 9834,
      "정몽": 9835,
      "sp": 9836,
      "랜드마크": 9837,
      "키웠": 9838,
      "##67": 9839,
      "서점": 9840,
      "닥치": 9841,
      "케미": 9842,
      "멸망": 9843,
      "앞뒤": 9844,
      "파트너십": 9845,
      "개량": 9846,
      "##tern": 9847,
      "박살": 9848,
      "십니다": 9849,
      "임종": 9850,
      "##세이": 9851,
      "놀랐": 9852,
      "다름없": 9853,
      "스트리": 9854,
      "##야마": 9855,
      "##걸리": 9856,
      "코코": 9857,
      "들여다보": 9858,
      "넓혀": 9859,
      "일곱": 9860,
      "##부리": 9861,
      "달랐": 9862,
      "달라질": 9863,
      "끊이": 9864,
      "##ire": 9865,
      "내재": 9866,
      "##가치": 9867,
      "분사": 9868,
      "인조": 9869,
      "유재": 9870,
      "비관": 9871,
      "덱": 9872,
      "어마": 9873,
      "망신": 9874,
      "280": 9875,
      "호르몬": 9876,
      "교대": 9877,
      "장거리": 9878,
      "카톡": 9879,
      "##리안": 9880,
      "##16": 9881,
      "아부": 9882,
      "숍": 9883,
      "formula": 9884,
      "역외": 9885,
      "설계사": 9886,
      "포용": 9887,
      "거주자": 9888,
      "밀리미터": 9889,
      "중국어": 9890,
      "공표": 9891,
      "260": 9892,
      "맡겨": 9893,
      "부평": 9894,
      "내림": 9895,
      "천사": 9896,
      "예쁜": 9897,
      "편견": 9898,
      "Bo": 9899,
      "몰렸": 9900,
      "부풀": 9901,
      "놀랍": 9902,
      "마음대로": 9903,
      "##일러": 9904,
      "통운": 9905,
      "나흘": 9906,
      "포부": 9907,
      "농지": 9908,
      "게시물": 9909,
      "##듭니다": 9910,
      "##24": 9911,
      "##조사": 9912,
      "국익": 9913,
      "##병대": 9914,
      "정년": 9915,
      "국산화": 9916,
      "로보": 9917,
      "손꼽": 9918,
      "재킷": 9919,
      "대명": 9920,
      "차명": 9921,
      "싸워": 9922,
      "캐리": 9923,
      "##13": 9924,
      "김형": 9925,
      "2024": 9926,
      "계곡": 9927,
      "막걸리": 9928,
      "상의": 9929,
      "간소": 9930,
      "##ase": 9931,
      "통산": 9932,
      "어워드": 9933,
      "선대": 9934,
      "이루어져": 9935,
      "예매": 9936,
      "신원": 9937,
      "##54": 9938,
      "##라이즈": 9939,
      "가처분": 9940,
      "##쳐서": 9941,
      "추출물": 9942,
      "으세요": 9943,
      "독보": 9944,
      "양파": 9945,
      "on": 9946,
      "본다면": 9947,
      "고는": 9948,
      "표적": 9949,
      "락할": 9950,
      "자부심": 9951,
      "싣": 9952,
      "##팩트": 9953,
      "궁금증": 9954,
      "동호": 9955,
      "애기": 9956,
      "연쇄": 9957,
      "구조물": 9958,
      "염증": 9959,
      "##크리트": 9960,
      "##벌레": 9961,
      "옥션": 9962,
      "리니지": 9963,
      "귀신": 9964,
      "조경": 9965,
      "마라톤": 9966,
      "미성년": 9967,
      "희귀": 9968,
      "산재": 9969,
      "재택": 9970,
      "샘플": 9971,
      "지르": 9972,
      "익명": 9973,
      "피곤": 9974,
      "살아나": 9975,
      "이어진다": 9976,
      "돼지고기": 9977,
      "자외선": 9978,
      "이순신": 9979,
      "급변": 9980,
      "기업체": 9981,
      "##든가": 9982,
      "되살": 9983,
      "한눈": 9984,
      "캄보": 9985,
      "장교": 9986,
      "져서": 9987,
      "아울렛": 9988,
      "백인": 9989,
      "디즈니": 9990,
      "##동강": 9991,
      "바치": 9992,
      "무작": 9993,
      "총기": 9994,
      "부친": 9995,
      "피우": 9996,
      "떨어진다": 9997,
      "법규": 9998,
      "##92": 9999,
      "道": 10000,
      "매개": 10001,
      "퇴임": 10002,
      "망가": 10003,
      "650": 10004,
      "내보내": 10005,
      "영하": 10006,
      "평론": 10007,
      "캐스팅": 10008,
      "가라앉": 10009,
      "##arg": 10010,
      "개체": 10011,
      "벨기에": 10012,
      "이해관계": 10013,
      "김승": 10014,
      "소망": 10015,
      "마포구": 10016,
      "생긴다": 10017,
      "행사장": 10018,
      "550": 10019,
      "오스트리아": 10020,
      "공연장": 10021,
      "모토": 10022,
      "방송국": 10023,
      "새우": 10024,
      "거래법": 10025,
      "##출산": 10026,
      "트윈": 10027,
      "아르바이트": 10028,
      "콘크리트": 10029,
      "체크카드": 10030,
      "아닙니까": 10031,
      "하청": 10032,
      "가뭄": 10033,
      "##14": 10034,
      "安": 10035,
      "차분": 10036,
      "배기": 10037,
      "##IST": 10038,
      "생활비": 10039,
      "##ung": 10040,
      "대리인": 10041,
      "구인": 10042,
      "니까요": 10043,
      "쿡": 10044,
      "유비": 10045,
      "저성장": 10046,
      "담겼": 10047,
      "견디": 10048,
      "파기": 10049,
      "##PU": 10050,
      "금고": 10051,
      "##그리": 10052,
      "휩싸": 10053,
      "뉴타운": 10054,
      "공구": 10055,
      "마루": 10056,
      "생체": 10057,
      "주어진": 10058,
      "작중": 10059,
      "키운": 10060,
      "국수": 10061,
      "경인": 10062,
      "앗": 10063,
      "엉뚱": 10064,
      "든가": 10065,
      "자치구": 10066,
      "어긋": 10067,
      "##ET": 10068,
      "작정": 10069,
      "이식": 10070,
      "좀처럼": 10071,
      "덴마크": 10072,
      "사설": 10073,
      "이마": 10074,
      "잉여": 10075,
      "##21": 10076,
      "환기": 10077,
      "기숙사": 10078,
      "왕조": 10079,
      "##프리카": 10080,
      "지정학": 10081,
      "나타낸": 10082,
      "##te": 10083,
      "##르기": 10084,
      "그런지": 10085,
      "배임": 10086,
      "##테이션": 10087,
      "노르웨이": 10088,
      "지소": 10089,
      "캄보디아": 10090,
      "넷마": 10091,
      "어로": 10092,
      "입수": 10093,
      "들어올": 10094,
      "지네": 10095,
      "표결": 10096,
      "내다보": 10097,
      "임박": 10098,
      "넷마블": 10099,
      "관통": 10100,
      "의료비": 10101,
      "후원금": 10102,
      "경제성장": 10103,
      "제사": 10104,
      "##ld": 10105,
      "동상": 10106,
      "고고": 10107,
      "셀프": 10108,
      "도장": 10109,
      "실은": 10110,
      "발길": 10111,
      "켈": 10112,
      "대법관": 10113,
      "##라이언": 10114,
      "좆": 10115,
      "닛케이": 10116,
      "트래픽": 10117,
      "당진": 10118,
      "다각화": 10119,
      "계약금": 10120,
      "폭동": 10121,
      "부위원장": 10122,
      "##82": 10123,
      "학사": 10124,
      "보상금": 10125,
      "장난감": 10126,
      "떳": 10127,
      "럼": 10128,
      "혼인": 10129,
      "괴리": 10130,
      "시군": 10131,
      "##백화점": 10132,
      "뺀": 10133,
      "상고": 10134,
      "데스크": 10135,
      "밀도": 10136,
      "기일": 10137,
      "원동": 10138,
      "달아": 10139,
      "자질": 10140,
      "잇달": 10141,
      "잉글랜드": 10142,
      "쫌": 10143,
      "게스트": 10144,
      "##62": 10145,
      "##anc": 10146,
      "우산": 10147,
      "##타이": 10148,
      "팬데": 10149,
      "다던": 10150,
      "Pre": 10151,
      "급하": 10152,
      "동남아시아": 10153,
      "인플레": 10154,
      "POS": 10155,
      "##69": 10156,
      "중공": 10157,
      "쏴": 10158,
      "전시관": 10159,
      "##와이": 10160,
      "1900": 10161,
      "##이자": 10162,
      "##주의자": 10163,
      "교인": 10164,
      "MSCI": 10165,
      "##추어": 10166,
      "목동": 10167,
      "쌓여": 10168,
      "탐지": 10169,
      "대입": 10170,
      "리아": 10171,
      "수반": 10172,
      "취한": 10173,
      "리치": 10174,
      "##enter": 10175,
      "속이": 10176,
      "##ON": 10177,
      "JT": 10178,
      "##63": 10179,
      "경직": 10180,
      "나간다": 10181,
      "BC": 10182,
      "pro": 10183,
      "인삼": 10184,
      "대표단": 10185,
      "지켰": 10186,
      "스리": 10187,
      "유기농": 10188,
      "킥": 10189,
      "풍속": 10190,
      "예쁘": 10191,
      "날카": 10192,
      "삼각": 10193,
      "낙하": 10194,
      "하트": 10195,
      "수평": 10196,
      "민관": 10197,
      "증권가": 10198,
      "속해": 10199,
      "경영학": 10200,
      "##77": 10201,
      "설마": 10202,
      "편법": 10203,
      "동질": 10204,
      "탈모": 10205,
      "좌익": 10206,
      "갑니다": 10207,
      "숨진": 10208,
      "관악": 10209,
      "##터카": 10210,
      "돌아갔": 10211,
      "KIA": 10212,
      "렌터카": 10213,
      "본연": 10214,
      "임상시험": 10215,
      "전가": 10216,
      "스틱": 10217,
      "훈장": 10218,
      "동방": 10219,
      "##mer": 10220,
      "고품질": 10221,
      "후쿠시마": 10222,
      "##사리": 10223,
      "##int": 10224,
      "가리키": 10225,
      "면모": 10226,
      "반포": 10227,
      "사제": 10228,
      "민사": 10229,
      "감리": 10230,
      "##27": 10231,
      "##국적": 10232,
      "퀴즈": 10233,
      "오세": 10234,
      "서프라이즈": 10235,
      "##두리": 10236,
      "Valuation": 10237,
      "유승민": 10238,
      "푸르지오": 10239,
      "중남": 10240,
      "공법": 10241,
      "365": 10242,
      "高": 10243,
      "카라": 10244,
      "녹화": 10245,
      "졸라": 10246,
      "퀘스트": 10247,
      "레오": 10248,
      "고립": 10249,
      "그지": 10250,
      "##GA": 10251,
      "성과급": 10252,
      "뜰": 10253,
      "구장": 10254,
      "##포터": 10255,
      "했어": 10256,
      "CM": 10257,
      "프리미어": 10258,
      "제의": 10259,
      "##실험": 10260,
      "##란시스": 10261,
      "큐브": 10262,
      "각성": 10263,
      "꽁": 10264,
      "원본": 10265,
      "간절": 10266,
      "정동": 10267,
      "##보기": 10268,
      "주둔": 10269,
      "정전": 10270,
      "이나마": 10271,
      "저출산": 10272,
      "##통일": 10273,
      "은폐": 10274,
      "##노스": 10275,
      "화살": 10276,
      "태권": 10277,
      "매크로": 10278,
      "유수": 10279,
      "TP": 10280,
      "공론": 10281,
      "##71": 10282,
      "##예금": 10283,
      "공청": 10284,
      "금융업": 10285,
      "##기부": 10286,
      "스위치": 10287,
      "소명": 10288,
      "가져올": 10289,
      "정액": 10290,
      "특약": 10291,
      "##네스": 10292,
      "대권": 10293,
      "출제": 10294,
      "##연대": 10295,
      "그쪽": 10296,
      "돌아서": 10297,
      "은평": 10298,
      "사직": 10299,
      "##33": 10300,
      "어딘": 10301,
      "##se": 10302,
      "##현진": 10303,
      "불명": 10304,
      "##티스": 10305,
      "천장": 10306,
      "텐트": 10307,
      "평형": 10308,
      "##다드": 10309,
      "챌린지": 10310,
      "받아들일": 10311,
      "PA": 10312,
      "걸레": 10313,
      "느낀다": 10314,
      "계획서": 10315,
      "생각나": 10316,
      "GA": 10317,
      "##61": 10318,
      "우울증": 10319,
      "부추기": 10320,
      "각기": 10321,
      "원심": 10322,
      "속초": 10323,
      "잔인": 10324,
      "농담": 10325,
      "광학": 10326,
      "##렌트": 10327,
      "이준": 10328,
      "꼰": 10329,
      "합치": 10330,
      "스탠더": 10331,
      "##ational": 10332,
      "로또": 10333,
      "##거렸": 10334,
      "뽕": 10335,
      "미네": 10336,
      "기종": 10337,
      "##통화": 10338,
      "보리": 10339,
      "##ith": 10340,
      "합당": 10341,
      "삼성전기": 10342,
      "집행유예": 10343,
      "언론인": 10344,
      "우기": 10345,
      "순조": 10346,
      "총무": 10347,
      "##손실": 10348,
      "나눌": 10349,
      "실린": 10350,
      "##루스": 10351,
      "선조": 10352,
      "비춰": 10353,
      "루이": 10354,
      "##ph": 10355,
      "##노이": 10356,
      "全": 10357,
      "카트": 10358,
      "##ft": 10359,
      "왕복": 10360,
      "##ond": 10361,
      "내세워": 10362,
      "높인": 10363,
      "##모토": 10364,
      "하긴": 10365,
      "말리": 10366,
      "당정": 10367,
      "수동": 10368,
      "ml": 10369,
      "안겨": 10370,
      "스탠더드": 10371,
      "너지": 10372,
      "국지": 10373,
      "스탠리": 10374,
      "캐피털": 10375,
      "일몰": 10376,
      "축사": 10377,
      "##병원": 10378,
      "주입": 10379,
      "애매": 10380,
      "돔": 10381,
      "##able": 10382,
      "인출": 10383,
      "회화": 10384,
      "할리": 10385,
      "억압": 10386,
      "주범": 10387,
      "쇄신": 10388,
      "엘리트": 10389,
      "##43": 10390,
      "##같이": 10391,
      "데이터베이스": 10392,
      "패드": 10393,
      "움직일": 10394,
      "몰락": 10395,
      "존재감": 10396,
      "다툼": 10397,
      "##공단": 10398,
      "됬": 10399,
      "액티브": 10400,
      "우월": 10401,
      "##99": 10402,
      "안쪽": 10403,
      "광교": 10404,
      "열쇠": 10405,
      "기둥": 10406,
      "중년": 10407,
      "구할": 10408,
      "데스": 10409,
      "직구": 10410,
      "들어설": 10411,
      "는구": 10412,
      "흐린": 10413,
      "비아": 10414,
      "모호": 10415,
      "푹": 10416,
      "띈": 10417,
      "대왕": 10418,
      "황당": 10419,
      "줄곧": 10420,
      "##ian": 10421,
      "하버": 10422,
      "공채": 10423,
      "##ies": 10424,
      "##레나": 10425,
      "수탁": 10426,
      "전한": 10427,
      "ap": 10428,
      "트레이딩": 10429,
      "스텝": 10430,
      "발열": 10431,
      "직결": 10432,
      "부의": 10433,
      "주무": 10434,
      "국한": 10435,
      "관세청": 10436,
      "쓸데": 10437,
      "렉스": 10438,
      "치밀": 10439,
      "행성": 10440,
      "다가가": 10441,
      "ex": 10442,
      "##LL": 10443,
      "금연": 10444,
      "실상": 10445,
      "머릿": 10446,
      "플래그": 10447,
      "주축": 10448,
      "습득": 10449,
      "넉넉": 10450,
      "당뇨병": 10451,
      "보류": 10452,
      "사생활": 10453,
      "빈도": 10454,
      "대유": 10455,
      "4500": 10456,
      "조이": 10457,
      "쟁이": 10458,
      "젓": 10459,
      "피싱": 10460,
      "##미안": 10461,
      "##73": 10462,
      "헌재": 10463,
      "HM": 10464,
      "돼요": 10465,
      "원리금": 10466,
      "타율": 10467,
      "려다": 10468,
      "개개인": 10469,
      "다니엘": 10470,
      "언덕": 10471,
      "삼성생명": 10472,
      "학점": 10473,
      "##안전": 10474,
      "첼": 10475,
      "화질": 10476,
      "바나": 10477,
      "치안": 10478,
      "VIP": 10479,
      "안타까운": 10480,
      "려나": 10481,
      "보금": 10482,
      "보금자리": 10483,
      "각도": 10484,
      "선보여": 10485,
      "##부인": 10486,
      "강당": 10487,
      "파동": 10488,
      "균형발전": 10489,
      "야마": 10490,
      "시어": 10491,
      "Cop": 10492,
      "소자": 10493,
      "빠질": 10494,
      "다이아몬드": 10495,
      "검거": 10496,
      "다국적": 10497,
      "롯데월드": 10498,
      "척추": 10499,
      "돌보": 10500,
      "신자": 10501,
      "##47": 10502,
      "박용": 10503,
      "전례": 10504,
      "구매자": 10505,
      "아바": 10506,
      "거듭나": 10507,
      "영등포": 10508,
      "햇살": 10509,
      "제법": 10510,
      "설탕": 10511,
      "유니폼": 10512,
      "급등세": 10513,
      "해온": 10514,
      "중진": 10515,
      "불어넣": 10516,
      "대성": 10517,
      "가루": 10518,
      "원산지": 10519,
      "사지": 10520,
      "키울": 10521,
      "한겨": 10522,
      "로버트": 10523,
      "이화": 10524,
      "관련자": 10525,
      "버그": 10526,
      "경마": 10527,
      "증강": 10528,
      "엉망": 10529,
      "음식물": 10530,
      "##수증": 10531,
      "정류": 10532,
      "구직": 10533,
      "미생": 10534,
      "피터": 10535,
      "번영": 10536,
      "가이던스": 10537,
      "오케": 10538,
      "하한": 10539,
      "함수": 10540,
      "목욕": 10541,
      "교훈": 10542,
      "전성": 10543,
      "콜라보": 10544,
      "프로세서": 10545,
      "셔츠": 10546,
      "##아라비아": 10547,
      "##차익": 10548,
      "먹여": 10549,
      "사우디아라비아": 10550,
      "삼성카드": 10551,
      "PR": 10552,
      "액세서리": 10553,
      "려던": 10554,
      "드라이버": 10555,
      "울트라": 10556,
      "필지": 10557,
      "존슨": 10558,
      "절상": 10559,
      "##85": 10560,
      "슈팅": 10561,
      "호랑이": 10562,
      "구형": 10563,
      "##iew": 10564,
      "서장": 10565,
      "성원": 10566,
      "홍성": 10567,
      "입대": 10568,
      "부른": 10569,
      "유정": 10570,
      "LIG": 10571,
      "능동": 10572,
      "##석희": 10573,
      "역겹": 10574,
      "가솔": 10575,
      "순손실": 10576,
      "꿰": 10577,
      "##천구": 10578,
      "자란": 10579,
      "내정자": 10580,
      "어이없": 10581,
      "##46": 10582,
      "하부": 10583,
      "ᄎ": 10584,
      "##ystem": 10585,
      "볼거리": 10586,
      "까진": 10587,
      "해치": 10588,
      "바로잡": 10589,
      "##ost": 10590,
      "트랜스": 10591,
      "핵실험": 10592,
      "기뻐": 10593,
      "김선": 10594,
      "섬세": 10595,
      "겁니까": 10596,
      "올라갈": 10597,
      "들으면": 10598,
      "행하": 10599,
      "밀레": 10600,
      "강판": 10601,
      "되풀이": 10602,
      "개동": 10603,
      "밸런스": 10604,
      "SKT": 10605,
      "건네": 10606,
      "당국자": 10607,
      "폭풍": 10608,
      "##91": 10609,
      "##동생": 10610,
      "강성": 10611,
      "學": 10612,
      "거둘": 10613,
      "공신": 10614,
      "성희": 10615,
      "잔뜩": 10616,
      "1986": 10617,
      "절벽": 10618,
      "늑": 10619,
      "레시": 10620,
      "장내": 10621,
      "샤워": 10622,
      "거액": 10623,
      "밍": 10624,
      "DJ": 10625,
      "베리": 10626,
      "냉정": 10627,
      "겁나": 10628,
      "인허가": 10629,
      "신세계백화점": 10630,
      "정복": 10631,
      "스태": 10632,
      "De": 10633,
      "종부": 10634,
      "할부": 10635,
      "아이파크": 10636,
      "##66": 10637,
      "쑤": 10638,
      "달렸": 10639,
      "가칭": 10640,
      "탭": 10641,
      "강서구": 10642,
      "경희": 10643,
      "당과": 10644,
      "속보": 10645,
      "색다른": 10646,
      "세법": 10647,
      "모였": 10648,
      "리듬": 10649,
      "쇠고기": 10650,
      "달라졌": 10651,
      "##베리": 10652,
      "본관": 10653,
      "해수부": 10654,
      "전매": 10655,
      "판문": 10656,
      "두려워": 10657,
      "임진": 10658,
      "등재": 10659,
      "z": 10660,
      "와이파이": 10661,
      "지각": 10662,
      "중앙일보": 10663,
      "##경기": 10664,
      "그해": 10665,
      "GE": 10666,
      "토목": 10667,
      "플라자": 10668,
      "양수": 10669,
      "NF": 10670,
      "자정": 10671,
      "세뇌": 10672,
      "인척": 10673,
      "갯": 10674,
      "##94": 10675,
      "브라우": 10676,
      "그라운드": 10677,
      "심포": 10678,
      "후지": 10679,
      "분식": 10680,
      "CES": 10681,
      "IFRS": 10682,
      "공모주": 10683,
      "대란": 10684,
      "쑥": 10685,
      "아이패드": 10686,
      "이끈": 10687,
      "수협": 10688,
      "탈세": 10689,
      "죽창": 10690,
      "밀양": 10691,
      "분단": 10692,
      "돌아와": 10693,
      "반지": 10694,
      "달해": 10695,
      "##ory": 10696,
      "꼽혔": 10697,
      "머물러": 10698,
      "##22": 10699,
      "칼럼": 10700,
      "스트라이": 10701,
      "불린다": 10702,
      "알림": 10703,
      "모스크": 10704,
      "직선": 10705,
      "틸": 10706,
      "재산세": 10707,
      "빠져나가": 10708,
      "빈번": 10709,
      "전대": 10710,
      "쎄": 10711,
      "##퇴직": 10712,
      "돌렸": 10713,
      "##잖아": 10714,
      "##ics": 10715,
      "이현": 10716,
      "펌프": 10717,
      "아우르": 10718,
      "가담": 10719,
      "이완": 10720,
      "##다이스": 10721,
      "랴": 10722,
      "세이브": 10723,
      "대교": 10724,
      "##ank": 10725,
      "##arket": 10726,
      "표출": 10727,
      "##의사": 10728,
      "만회": 10729,
      "경협": 10730,
      "에드": 10731,
      "123": 10732,
      "못지않": 10733,
      "달래": 10734,
      "리어": 10735,
      "편향": 10736,
      "##56": 10737,
      "로맨스": 10738,
      "가솔린": 10739,
      "Br": 10740,
      "걸어서": 10741,
      "정형": 10742,
      "포천": 10743,
      "맥도": 10744,
      "대출금": 10745,
      "공무": 10746,
      "품안": 10747,
      "파라다이스": 10748,
      "늠": 10749,
      "칠레": 10750,
      "##98": 10751,
      "안중": 10752,
      "뻘": 10753,
      "결실": 10754,
      "일명": 10755,
      "세정": 10756,
      "기미": 10757,
      "온스": 10758,
      "은근": 10759,
      "하여간": 10760,
      "프린터": 10761,
      "이루어질": 10762,
      "나주": 10763,
      "도미": 10764,
      "일감": 10765,
      "헤이": 10766,
      "화소": 10767,
      "AD": 10768,
      "세분": 10769,
      "KDB": 10770,
      "토리": 10771,
      "필라": 10772,
[...]
